619_param_0 416.61543851800565 416.61543851800565 416.61543851800565 416.61543851800565 416.61543851800565 416.61543851800565 416.61543851800565 416.61543851800565 416.61543851800565 416.61543851800565 416.61543851800565 416.61543851800565 416.61543851800565 416.61543851800565 416.61543851800565 416.61543851800565 416.61543851800565 416.61543851800565 416.61543851800565 416.61543851800565 416.61543851800565 416.61543851800565 416.61543851800565 416.61543851800565 416.61543851800565 416.61543851800565 416.61543851800565 416.61543851800565 416.61543851800565 416.61543851800565 416.61543851800565 416.61543851800565
622_param_0 1.3430558534170713 1.3430558534170713 1.3430558534170713 1.3430558534170713 1.3430558534170713 1.3430558534170713 1.3430558534170713 1.3430558534170713 1.3430558534170713 1.3430558534170713 1.3430558534170713 1.3430558534170713 1.3430558534170713 1.3430558534170713 1.3430558534170713 1.3430558534170713 1.3430558534170713 1.3430558534170713 1.3430558534170713 1.3430558534170713 1.3430558534170713 1.3430558534170713 1.3430558534170713 1.3430558534170713 1.3430558534170713 1.3430558534170713 1.3430558534170713 1.3430558534170713 1.3430558534170713 1.3430558534170713 1.3430558534170713 1.3430558534170713
625_param_0 347.2560736722104 347.2560736722104 347.2560736722104 347.2560736722104 347.2560736722104 347.2560736722104 347.2560736722104 347.2560736722104 347.2560736722104 347.2560736722104 347.2560736722104 347.2560736722104 347.2560736722104 347.2560736722104 347.2560736722104 347.2560736722104
627_param_0 1.0052722636747804 1.0052722636747804 1.0052722636747804 1.0052722636747804 1.0052722636747804 1.0052722636747804 1.0052722636747804 1.0052722636747804 1.0052722636747804 1.0052722636747804 1.0052722636747804 1.0052722636747804 1.0052722636747804 1.0052722636747804 1.0052722636747804 1.0052722636747804 1.0052722636747804 1.0052722636747804 1.0052722636747804 1.0052722636747804 1.0052722636747804 1.0052722636747804 1.0052722636747804 1.0052722636747804 1.0052722636747804 1.0052722636747804 1.0052722636747804 1.0052722636747804 1.0052722636747804 1.0052722636747804 1.0052722636747804 1.0052722636747804 1.0052722636747804 1.0052722636747804 1.0052722636747804 1.0052722636747804 1.0052722636747804 1.0052722636747804 1.0052722636747804 1.0052722636747804 1.0052722636747804 1.0052722636747804 1.0052722636747804 1.0052722636747804 1.0052722636747804 1.0052722636747804 1.0052722636747804 1.0052722636747804 1.0052722636747804 1.0052722636747804 1.0052722636747804 1.0052722636747804 1.0052722636747804 1.0052722636747804 1.0052722636747804 1.0052722636747804 1.0052722636747804 1.0052722636747804 1.0052722636747804 1.0052722636747804 1.0052722636747804 1.0052722636747804 1.0052722636747804 1.0052722636747804 1.0052722636747804 1.0052722636747804 1.0052722636747804 1.0052722636747804 1.0052722636747804 1.0052722636747804 1.0052722636747804 1.0052722636747804 1.0052722636747804 1.0052722636747804 1.0052722636747804 1.0052722636747804 1.0052722636747804 1.0052722636747804 1.0052722636747804 1.0052722636747804 1.0052722636747804 1.0052722636747804 1.0052722636747804 1.0052722636747804 1.0052722636747804 1.0052722636747804 1.0052722636747804 1.0052722636747804 1.0052722636747804 1.0052722636747804 1.0052722636747804 1.0052722636747804 1.0052722636747804 1.0052722636747804 1.0052722636747804 1.0052722636747804
630_param_0 67.6191178633972 67.6191178633972 67.6191178633972 67.6191178633972 67.6191178633972 67.6191178633972 67.6191178633972 67.6191178633972 67.6191178633972 67.6191178633972 67.6191178633972 67.6191178633972 67.6191178633972 67.6191178633972 67.6191178633972 67.6191178633972 67.6191178633972 67.6191178633972 67.6191178633972 67.6191178633972 67.6191178633972 67.6191178633972 67.6191178633972 67.6191178633972 67.6191178633972 67.6191178633972 67.6191178633972 67.6191178633972 67.6191178633972 67.6191178633972 67.6191178633972 67.6191178633972 67.6191178633972 67.6191178633972 67.6191178633972 67.6191178633972 67.6191178633972 67.6191178633972 67.6191178633972 67.6191178633972 67.6191178633972 67.6191178633972 67.6191178633972 67.6191178633972 67.6191178633972 67.6191178633972 67.6191178633972 67.6191178633972 67.6191178633972 67.6191178633972 67.6191178633972 67.6191178633972 67.6191178633972 67.6191178633972 67.6191178633972 67.6191178633972 67.6191178633972 67.6191178633972 67.6191178633972 67.6191178633972 67.6191178633972 67.6191178633972 67.6191178633972 67.6191178633972 67.6191178633972 67.6191178633972 67.6191178633972 67.6191178633972 67.6191178633972 67.6191178633972 67.6191178633972 67.6191178633972 67.6191178633972 67.6191178633972 67.6191178633972 67.6191178633972 67.6191178633972 67.6191178633972 67.6191178633972 67.6191178633972 67.6191178633972 67.6191178633972 67.6191178633972 67.6191178633972 67.6191178633972 67.6191178633972 67.6191178633972 67.6191178633972 67.6191178633972 67.6191178633972 67.6191178633972 67.6191178633972 67.6191178633972 67.6191178633972 67.6191178633972 67.6191178633972
633_param_0 116.53423978397996 116.53423978397996 116.53423978397996 116.53423978397996 116.53423978397996 116.53423978397996 116.53423978397996 116.53423978397996 116.53423978397996 116.53423978397996 116.53423978397996 116.53423978397996 116.53423978397996 116.53423978397996 116.53423978397996 116.53423978397996 116.53423978397996 116.53423978397996 116.53423978397996 116.53423978397996 116.53423978397996 116.53423978397996 116.53423978397996 116.53423978397996
635_param_0 292.60260217324657 292.60260217324657 292.60260217324657 292.60260217324657 292.60260217324657 292.60260217324657 292.60260217324657 292.60260217324657 292.60260217324657 292.60260217324657 292.60260217324657 292.60260217324657 292.60260217324657 292.60260217324657 292.60260217324657 292.60260217324657 292.60260217324657 292.60260217324657 292.60260217324657 292.60260217324657 292.60260217324657 292.60260217324657 292.60260217324657 292.60260217324657 292.60260217324657 292.60260217324657 292.60260217324657 292.60260217324657 292.60260217324657 292.60260217324657 292.60260217324657 292.60260217324657 292.60260217324657 292.60260217324657 292.60260217324657 292.60260217324657 292.60260217324657 292.60260217324657 292.60260217324657 292.60260217324657 292.60260217324657 292.60260217324657 292.60260217324657 292.60260217324657 292.60260217324657 292.60260217324657 292.60260217324657 292.60260217324657 292.60260217324657 292.60260217324657 292.60260217324657 292.60260217324657 292.60260217324657 292.60260217324657 292.60260217324657 292.60260217324657 292.60260217324657 292.60260217324657 292.60260217324657 292.60260217324657 292.60260217324657 292.60260217324657 292.60260217324657 292.60260217324657 292.60260217324657 292.60260217324657 292.60260217324657 292.60260217324657 292.60260217324657 292.60260217324657 292.60260217324657 292.60260217324657 292.60260217324657 292.60260217324657 292.60260217324657 292.60260217324657 292.60260217324657 292.60260217324657 292.60260217324657 292.60260217324657 292.60260217324657 292.60260217324657 292.60260217324657 292.60260217324657 292.60260217324657 292.60260217324657 292.60260217324657 292.60260217324657 292.60260217324657 292.60260217324657 292.60260217324657 292.60260217324657 292.60260217324657 292.60260217324657 292.60260217324657 292.60260217324657 292.60260217324657 292.60260217324657 292.60260217324657 292.60260217324657 292.60260217324657 292.60260217324657 292.60260217324657 292.60260217324657 292.60260217324657 292.60260217324657 292.60260217324657 292.60260217324657 292.60260217324657 292.60260217324657 292.60260217324657 292.60260217324657 292.60260217324657 292.60260217324657 292.60260217324657 292.60260217324657 292.60260217324657 292.60260217324657 292.60260217324657 292.60260217324657 292.60260217324657 292.60260217324657 292.60260217324657 292.60260217324657 292.60260217324657 292.60260217324657 292.60260217324657 292.60260217324657 292.60260217324657 292.60260217324657 292.60260217324657 292.60260217324657 292.60260217324657 292.60260217324657 292.60260217324657 292.60260217324657 292.60260217324657 292.60260217324657 292.60260217324657 292.60260217324657 292.60260217324657 292.60260217324657 292.60260217324657 292.60260217324657
638_param_0 23.36346009266514 23.36346009266514 23.36346009266514 23.36346009266514 23.36346009266514 23.36346009266514 23.36346009266514 23.36346009266514 23.36346009266514 23.36346009266514 23.36346009266514 23.36346009266514 23.36346009266514 23.36346009266514 23.36346009266514 23.36346009266514 23.36346009266514 23.36346009266514 23.36346009266514 23.36346009266514 23.36346009266514 23.36346009266514 23.36346009266514 23.36346009266514 23.36346009266514 23.36346009266514 23.36346009266514 23.36346009266514 23.36346009266514 23.36346009266514 23.36346009266514 23.36346009266514 23.36346009266514 23.36346009266514 23.36346009266514 23.36346009266514 23.36346009266514 23.36346009266514 23.36346009266514 23.36346009266514 23.36346009266514 23.36346009266514 23.36346009266514 23.36346009266514 23.36346009266514 23.36346009266514 23.36346009266514 23.36346009266514 23.36346009266514 23.36346009266514 23.36346009266514 23.36346009266514 23.36346009266514 23.36346009266514 23.36346009266514 23.36346009266514 23.36346009266514 23.36346009266514 23.36346009266514 23.36346009266514 23.36346009266514 23.36346009266514 23.36346009266514 23.36346009266514 23.36346009266514 23.36346009266514 23.36346009266514 23.36346009266514 23.36346009266514 23.36346009266514 23.36346009266514 23.36346009266514 23.36346009266514 23.36346009266514 23.36346009266514 23.36346009266514 23.36346009266514 23.36346009266514 23.36346009266514 23.36346009266514 23.36346009266514 23.36346009266514 23.36346009266514 23.36346009266514 23.36346009266514 23.36346009266514 23.36346009266514 23.36346009266514 23.36346009266514 23.36346009266514 23.36346009266514 23.36346009266514 23.36346009266514 23.36346009266514 23.36346009266514 23.36346009266514 23.36346009266514 23.36346009266514 23.36346009266514 23.36346009266514 23.36346009266514 23.36346009266514 23.36346009266514 23.36346009266514 23.36346009266514 23.36346009266514 23.36346009266514 23.36346009266514 23.36346009266514 23.36346009266514 23.36346009266514 23.36346009266514 23.36346009266514 23.36346009266514 23.36346009266514 23.36346009266514 23.36346009266514 23.36346009266514 23.36346009266514 23.36346009266514 23.36346009266514 23.36346009266514 23.36346009266514 23.36346009266514 23.36346009266514 23.36346009266514 23.36346009266514 23.36346009266514 23.36346009266514 23.36346009266514 23.36346009266514 23.36346009266514 23.36346009266514 23.36346009266514 23.36346009266514 23.36346009266514 23.36346009266514 23.36346009266514 23.36346009266514 23.36346009266514 23.36346009266514 23.36346009266514 23.36346009266514 23.36346009266514
641_param_0 80.03482307193991 80.03482307193991 80.03482307193991 80.03482307193991 80.03482307193991 80.03482307193991 80.03482307193991 80.03482307193991 80.03482307193991 80.03482307193991 80.03482307193991 80.03482307193991 80.03482307193991 80.03482307193991 80.03482307193991 80.03482307193991 80.03482307193991 80.03482307193991 80.03482307193991 80.03482307193991 80.03482307193991 80.03482307193991 80.03482307193991 80.03482307193991
644_param_0 372.69066014474737 372.69066014474737 372.69066014474737 372.69066014474737 372.69066014474737 372.69066014474737 372.69066014474737 372.69066014474737 372.69066014474737 372.69066014474737 372.69066014474737 372.69066014474737 372.69066014474737 372.69066014474737 372.69066014474737 372.69066014474737 372.69066014474737 372.69066014474737 372.69066014474737 372.69066014474737 372.69066014474737 372.69066014474737 372.69066014474737 372.69066014474737 372.69066014474737 372.69066014474737 372.69066014474737 372.69066014474737 372.69066014474737 372.69066014474737 372.69066014474737 372.69066014474737 372.69066014474737 372.69066014474737 372.69066014474737 372.69066014474737 372.69066014474737 372.69066014474737 372.69066014474737 372.69066014474737 372.69066014474737 372.69066014474737 372.69066014474737 372.69066014474737 372.69066014474737 372.69066014474737 372.69066014474737 372.69066014474737 372.69066014474737 372.69066014474737 372.69066014474737 372.69066014474737 372.69066014474737 372.69066014474737 372.69066014474737 372.69066014474737 372.69066014474737 372.69066014474737 372.69066014474737 372.69066014474737 372.69066014474737 372.69066014474737 372.69066014474737 372.69066014474737 372.69066014474737 372.69066014474737 372.69066014474737 372.69066014474737 372.69066014474737 372.69066014474737 372.69066014474737 372.69066014474737 372.69066014474737 372.69066014474737 372.69066014474737 372.69066014474737 372.69066014474737 372.69066014474737 372.69066014474737 372.69066014474737 372.69066014474737 372.69066014474737 372.69066014474737 372.69066014474737 372.69066014474737 372.69066014474737 372.69066014474737 372.69066014474737 372.69066014474737 372.69066014474737 372.69066014474737 372.69066014474737 372.69066014474737 372.69066014474737 372.69066014474737 372.69066014474737 372.69066014474737 372.69066014474737 372.69066014474737 372.69066014474737 372.69066014474737 372.69066014474737 372.69066014474737 372.69066014474737 372.69066014474737 372.69066014474737 372.69066014474737 372.69066014474737 372.69066014474737 372.69066014474737 372.69066014474737 372.69066014474737 372.69066014474737 372.69066014474737 372.69066014474737 372.69066014474737 372.69066014474737 372.69066014474737 372.69066014474737 372.69066014474737 372.69066014474737 372.69066014474737 372.69066014474737 372.69066014474737 372.69066014474737 372.69066014474737 372.69066014474737 372.69066014474737 372.69066014474737 372.69066014474737 372.69066014474737 372.69066014474737 372.69066014474737 372.69066014474737 372.69066014474737 372.69066014474737 372.69066014474737 372.69066014474737 372.69066014474737 372.69066014474737 372.69066014474737 372.69066014474737 372.69066014474737 372.69066014474737
647_param_0 55.83322547060683 55.83322547060683 55.83322547060683 55.83322547060683 55.83322547060683 55.83322547060683 55.83322547060683 55.83322547060683 55.83322547060683 55.83322547060683 55.83322547060683 55.83322547060683 55.83322547060683 55.83322547060683 55.83322547060683 55.83322547060683 55.83322547060683 55.83322547060683 55.83322547060683 55.83322547060683 55.83322547060683 55.83322547060683 55.83322547060683 55.83322547060683 55.83322547060683 55.83322547060683 55.83322547060683 55.83322547060683 55.83322547060683 55.83322547060683 55.83322547060683 55.83322547060683 55.83322547060683 55.83322547060683 55.83322547060683 55.83322547060683 55.83322547060683 55.83322547060683 55.83322547060683 55.83322547060683 55.83322547060683 55.83322547060683 55.83322547060683 55.83322547060683 55.83322547060683 55.83322547060683 55.83322547060683 55.83322547060683 55.83322547060683 55.83322547060683 55.83322547060683 55.83322547060683 55.83322547060683 55.83322547060683 55.83322547060683 55.83322547060683 55.83322547060683 55.83322547060683 55.83322547060683 55.83322547060683 55.83322547060683 55.83322547060683 55.83322547060683 55.83322547060683 55.83322547060683 55.83322547060683 55.83322547060683 55.83322547060683 55.83322547060683 55.83322547060683 55.83322547060683 55.83322547060683 55.83322547060683 55.83322547060683 55.83322547060683 55.83322547060683 55.83322547060683 55.83322547060683 55.83322547060683 55.83322547060683 55.83322547060683 55.83322547060683 55.83322547060683 55.83322547060683 55.83322547060683 55.83322547060683 55.83322547060683 55.83322547060683 55.83322547060683 55.83322547060683 55.83322547060683 55.83322547060683 55.83322547060683 55.83322547060683 55.83322547060683 55.83322547060683 55.83322547060683 55.83322547060683 55.83322547060683 55.83322547060683 55.83322547060683 55.83322547060683 55.83322547060683 55.83322547060683 55.83322547060683 55.83322547060683 55.83322547060683 55.83322547060683 55.83322547060683 55.83322547060683 55.83322547060683 55.83322547060683 55.83322547060683 55.83322547060683 55.83322547060683 55.83322547060683 55.83322547060683 55.83322547060683 55.83322547060683 55.83322547060683 55.83322547060683 55.83322547060683 55.83322547060683 55.83322547060683 55.83322547060683 55.83322547060683 55.83322547060683 55.83322547060683 55.83322547060683 55.83322547060683 55.83322547060683 55.83322547060683 55.83322547060683 55.83322547060683 55.83322547060683 55.83322547060683 55.83322547060683 55.83322547060683 55.83322547060683 55.83322547060683 55.83322547060683 55.83322547060683 55.83322547060683 55.83322547060683
650_param_0 178.2473235099427 178.2473235099427 178.2473235099427 178.2473235099427 178.2473235099427 178.2473235099427 178.2473235099427 178.2473235099427 178.2473235099427 178.2473235099427 178.2473235099427 178.2473235099427 178.2473235099427 178.2473235099427 178.2473235099427 178.2473235099427 178.2473235099427 178.2473235099427 178.2473235099427 178.2473235099427 178.2473235099427 178.2473235099427 178.2473235099427 178.2473235099427 178.2473235099427 178.2473235099427 178.2473235099427 178.2473235099427 178.2473235099427 178.2473235099427 178.2473235099427 178.2473235099427
652_param_0 651.7872340845282 651.7872340845282 651.7872340845282 651.7872340845282 651.7872340845282 651.7872340845282 651.7872340845282 651.7872340845282 651.7872340845282 651.7872340845282 651.7872340845282 651.7872340845282 651.7872340845282 651.7872340845282 651.7872340845282 651.7872340845282 651.7872340845282 651.7872340845282 651.7872340845282 651.7872340845282 651.7872340845282 651.7872340845282 651.7872340845282 651.7872340845282 651.7872340845282 651.7872340845282 651.7872340845282 651.7872340845282 651.7872340845282 651.7872340845282 651.7872340845282 651.7872340845282 651.7872340845282 651.7872340845282 651.7872340845282 651.7872340845282 651.7872340845282 651.7872340845282 651.7872340845282 651.7872340845282 651.7872340845282 651.7872340845282 651.7872340845282 651.7872340845282 651.7872340845282 651.7872340845282 651.7872340845282 651.7872340845282 651.7872340845282 651.7872340845282 651.7872340845282 651.7872340845282 651.7872340845282 651.7872340845282 651.7872340845282 651.7872340845282 651.7872340845282 651.7872340845282 651.7872340845282 651.7872340845282 651.7872340845282 651.7872340845282 651.7872340845282 651.7872340845282 651.7872340845282 651.7872340845282 651.7872340845282 651.7872340845282 651.7872340845282 651.7872340845282 651.7872340845282 651.7872340845282 651.7872340845282 651.7872340845282 651.7872340845282 651.7872340845282 651.7872340845282 651.7872340845282 651.7872340845282 651.7872340845282 651.7872340845282 651.7872340845282 651.7872340845282 651.7872340845282 651.7872340845282 651.7872340845282 651.7872340845282 651.7872340845282 651.7872340845282 651.7872340845282 651.7872340845282 651.7872340845282 651.7872340845282 651.7872340845282 651.7872340845282 651.7872340845282 651.7872340845282 651.7872340845282 651.7872340845282 651.7872340845282 651.7872340845282 651.7872340845282 651.7872340845282 651.7872340845282 651.7872340845282 651.7872340845282 651.7872340845282 651.7872340845282 651.7872340845282 651.7872340845282 651.7872340845282 651.7872340845282 651.7872340845282 651.7872340845282 651.7872340845282 651.7872340845282 651.7872340845282 651.7872340845282 651.7872340845282 651.7872340845282 651.7872340845282 651.7872340845282 651.7872340845282 651.7872340845282 651.7872340845282 651.7872340845282 651.7872340845282 651.7872340845282 651.7872340845282 651.7872340845282 651.7872340845282 651.7872340845282 651.7872340845282 651.7872340845282 651.7872340845282 651.7872340845282 651.7872340845282 651.7872340845282 651.7872340845282 651.7872340845282 651.7872340845282 651.7872340845282 651.7872340845282 651.7872340845282 651.7872340845282 651.7872340845282 651.7872340845282 651.7872340845282 651.7872340845282 651.7872340845282 651.7872340845282 651.7872340845282 651.7872340845282 651.7872340845282 651.7872340845282 651.7872340845282 651.7872340845282 651.7872340845282 651.7872340845282 651.7872340845282 651.7872340845282 651.7872340845282 651.7872340845282 651.7872340845282 651.7872340845282 651.7872340845282 651.7872340845282 651.7872340845282 651.7872340845282 651.7872340845282 651.7872340845282 651.7872340845282 651.7872340845282 651.7872340845282 651.7872340845282 651.7872340845282 651.7872340845282 651.7872340845282 651.7872340845282 651.7872340845282 651.7872340845282 651.7872340845282 651.7872340845282 651.7872340845282 651.7872340845282 651.7872340845282 651.7872340845282 651.7872340845282 651.7872340845282 651.7872340845282 651.7872340845282 651.7872340845282
655_param_0 23.42999250409098 23.42999250409098 23.42999250409098 23.42999250409098 23.42999250409098 23.42999250409098 23.42999250409098 23.42999250409098 23.42999250409098 23.42999250409098 23.42999250409098 23.42999250409098 23.42999250409098 23.42999250409098 23.42999250409098 23.42999250409098 23.42999250409098 23.42999250409098 23.42999250409098 23.42999250409098 23.42999250409098 23.42999250409098 23.42999250409098 23.42999250409098 23.42999250409098 23.42999250409098 23.42999250409098 23.42999250409098 23.42999250409098 23.42999250409098 23.42999250409098 23.42999250409098 23.42999250409098 23.42999250409098 23.42999250409098 23.42999250409098 23.42999250409098 23.42999250409098 23.42999250409098 23.42999250409098 23.42999250409098 23.42999250409098 23.42999250409098 23.42999250409098 23.42999250409098 23.42999250409098 23.42999250409098 23.42999250409098 23.42999250409098 23.42999250409098 23.42999250409098 23.42999250409098 23.42999250409098 23.42999250409098 23.42999250409098 23.42999250409098 23.42999250409098 23.42999250409098 23.42999250409098 23.42999250409098 23.42999250409098 23.42999250409098 23.42999250409098 23.42999250409098 23.42999250409098 23.42999250409098 23.42999250409098 23.42999250409098 23.42999250409098 23.42999250409098 23.42999250409098 23.42999250409098 23.42999250409098 23.42999250409098 23.42999250409098 23.42999250409098 23.42999250409098 23.42999250409098 23.42999250409098 23.42999250409098 23.42999250409098 23.42999250409098 23.42999250409098 23.42999250409098 23.42999250409098 23.42999250409098 23.42999250409098 23.42999250409098 23.42999250409098 23.42999250409098 23.42999250409098 23.42999250409098 23.42999250409098 23.42999250409098 23.42999250409098 23.42999250409098 23.42999250409098 23.42999250409098 23.42999250409098 23.42999250409098 23.42999250409098 23.42999250409098 23.42999250409098 23.42999250409098 23.42999250409098 23.42999250409098 23.42999250409098 23.42999250409098 23.42999250409098 23.42999250409098 23.42999250409098 23.42999250409098 23.42999250409098 23.42999250409098 23.42999250409098 23.42999250409098 23.42999250409098 23.42999250409098 23.42999250409098 23.42999250409098 23.42999250409098 23.42999250409098 23.42999250409098 23.42999250409098 23.42999250409098 23.42999250409098 23.42999250409098 23.42999250409098 23.42999250409098 23.42999250409098 23.42999250409098 23.42999250409098 23.42999250409098 23.42999250409098 23.42999250409098 23.42999250409098 23.42999250409098 23.42999250409098 23.42999250409098 23.42999250409098 23.42999250409098 23.42999250409098 23.42999250409098 23.42999250409098 23.42999250409098 23.42999250409098 23.42999250409098 23.42999250409098 23.42999250409098 23.42999250409098 23.42999250409098 23.42999250409098 23.42999250409098 23.42999250409098 23.42999250409098 23.42999250409098 23.42999250409098 23.42999250409098 23.42999250409098 23.42999250409098 23.42999250409098 23.42999250409098 23.42999250409098 23.42999250409098 23.42999250409098 23.42999250409098 23.42999250409098 23.42999250409098 23.42999250409098 23.42999250409098 23.42999250409098 23.42999250409098 23.42999250409098 23.42999250409098 23.42999250409098 23.42999250409098 23.42999250409098 23.42999250409098 23.42999250409098 23.42999250409098 23.42999250409098 23.42999250409098 23.42999250409098 23.42999250409098 23.42999250409098 23.42999250409098 23.42999250409098 23.42999250409098 23.42999250409098 23.42999250409098 23.42999250409098 23.42999250409098
658_param_0 140.14249732373105 140.14249732373105 140.14249732373105 140.14249732373105 140.14249732373105 140.14249732373105 140.14249732373105 140.14249732373105 140.14249732373105 140.14249732373105 140.14249732373105 140.14249732373105 140.14249732373105 140.14249732373105 140.14249732373105 140.14249732373105 140.14249732373105 140.14249732373105 140.14249732373105 140.14249732373105 140.14249732373105 140.14249732373105 140.14249732373105 140.14249732373105 140.14249732373105 140.14249732373105 140.14249732373105 140.14249732373105 140.14249732373105 140.14249732373105 140.14249732373105 140.14249732373105
661_param_0 818.3114336030003 818.3114336030003 818.3114336030003 818.3114336030003 818.3114336030003 818.3114336030003 818.3114336030003 818.3114336030003 818.3114336030003 818.3114336030003 818.3114336030003 818.3114336030003 818.3114336030003 818.3114336030003 818.3114336030003 818.3114336030003 818.3114336030003 818.3114336030003 818.3114336030003 818.3114336030003 818.3114336030003 818.3114336030003 818.3114336030003 818.3114336030003 818.3114336030003 818.3114336030003 818.3114336030003 818.3114336030003 818.3114336030003 818.3114336030003 818.3114336030003 818.3114336030003 818.3114336030003 818.3114336030003 818.3114336030003 818.3114336030003 818.3114336030003 818.3114336030003 818.3114336030003 818.3114336030003 818.3114336030003 818.3114336030003 818.3114336030003 818.3114336030003 818.3114336030003 818.3114336030003 818.3114336030003 818.3114336030003 818.3114336030003 818.3114336030003 818.3114336030003 818.3114336030003 818.3114336030003 818.3114336030003 818.3114336030003 818.3114336030003 818.3114336030003 818.3114336030003 818.3114336030003 818.3114336030003 818.3114336030003 818.3114336030003 818.3114336030003 818.3114336030003 818.3114336030003 818.3114336030003 818.3114336030003 818.3114336030003 818.3114336030003 818.3114336030003 818.3114336030003 818.3114336030003 818.3114336030003 818.3114336030003 818.3114336030003 818.3114336030003 818.3114336030003 818.3114336030003 818.3114336030003 818.3114336030003 818.3114336030003 818.3114336030003 818.3114336030003 818.3114336030003 818.3114336030003 818.3114336030003 818.3114336030003 818.3114336030003 818.3114336030003 818.3114336030003 818.3114336030003 818.3114336030003 818.3114336030003 818.3114336030003 818.3114336030003 818.3114336030003 818.3114336030003 818.3114336030003 818.3114336030003 818.3114336030003 818.3114336030003 818.3114336030003 818.3114336030003 818.3114336030003 818.3114336030003 818.3114336030003 818.3114336030003 818.3114336030003 818.3114336030003 818.3114336030003 818.3114336030003 818.3114336030003 818.3114336030003 818.3114336030003 818.3114336030003 818.3114336030003 818.3114336030003 818.3114336030003 818.3114336030003 818.3114336030003 818.3114336030003 818.3114336030003 818.3114336030003 818.3114336030003 818.3114336030003 818.3114336030003 818.3114336030003 818.3114336030003 818.3114336030003 818.3114336030003 818.3114336030003 818.3114336030003 818.3114336030003 818.3114336030003 818.3114336030003 818.3114336030003 818.3114336030003 818.3114336030003 818.3114336030003 818.3114336030003 818.3114336030003 818.3114336030003 818.3114336030003 818.3114336030003 818.3114336030003 818.3114336030003 818.3114336030003 818.3114336030003 818.3114336030003 818.3114336030003 818.3114336030003 818.3114336030003 818.3114336030003 818.3114336030003 818.3114336030003 818.3114336030003 818.3114336030003 818.3114336030003 818.3114336030003 818.3114336030003 818.3114336030003 818.3114336030003 818.3114336030003 818.3114336030003 818.3114336030003 818.3114336030003 818.3114336030003 818.3114336030003 818.3114336030003 818.3114336030003 818.3114336030003 818.3114336030003 818.3114336030003 818.3114336030003 818.3114336030003 818.3114336030003 818.3114336030003 818.3114336030003 818.3114336030003 818.3114336030003 818.3114336030003 818.3114336030003 818.3114336030003 818.3114336030003 818.3114336030003 818.3114336030003 818.3114336030003 818.3114336030003 818.3114336030003 818.3114336030003 818.3114336030003 818.3114336030003
664_param_0 32.50582654159469 32.50582654159469 32.50582654159469 32.50582654159469 32.50582654159469 32.50582654159469 32.50582654159469 32.50582654159469 32.50582654159469 32.50582654159469 32.50582654159469 32.50582654159469 32.50582654159469 32.50582654159469 32.50582654159469 32.50582654159469 32.50582654159469 32.50582654159469 32.50582654159469 32.50582654159469 32.50582654159469 32.50582654159469 32.50582654159469 32.50582654159469 32.50582654159469 32.50582654159469 32.50582654159469 32.50582654159469 32.50582654159469 32.50582654159469 32.50582654159469 32.50582654159469 32.50582654159469 32.50582654159469 32.50582654159469 32.50582654159469 32.50582654159469 32.50582654159469 32.50582654159469 32.50582654159469 32.50582654159469 32.50582654159469 32.50582654159469 32.50582654159469 32.50582654159469 32.50582654159469 32.50582654159469 32.50582654159469 32.50582654159469 32.50582654159469 32.50582654159469 32.50582654159469 32.50582654159469 32.50582654159469 32.50582654159469 32.50582654159469 32.50582654159469 32.50582654159469 32.50582654159469 32.50582654159469 32.50582654159469 32.50582654159469 32.50582654159469 32.50582654159469 32.50582654159469 32.50582654159469 32.50582654159469 32.50582654159469 32.50582654159469 32.50582654159469 32.50582654159469 32.50582654159469 32.50582654159469 32.50582654159469 32.50582654159469 32.50582654159469 32.50582654159469 32.50582654159469 32.50582654159469 32.50582654159469 32.50582654159469 32.50582654159469 32.50582654159469 32.50582654159469 32.50582654159469 32.50582654159469 32.50582654159469 32.50582654159469 32.50582654159469 32.50582654159469 32.50582654159469 32.50582654159469 32.50582654159469 32.50582654159469 32.50582654159469 32.50582654159469 32.50582654159469 32.50582654159469 32.50582654159469 32.50582654159469 32.50582654159469 32.50582654159469 32.50582654159469 32.50582654159469 32.50582654159469 32.50582654159469 32.50582654159469 32.50582654159469 32.50582654159469 32.50582654159469 32.50582654159469 32.50582654159469 32.50582654159469 32.50582654159469 32.50582654159469 32.50582654159469 32.50582654159469 32.50582654159469 32.50582654159469 32.50582654159469 32.50582654159469 32.50582654159469 32.50582654159469 32.50582654159469 32.50582654159469 32.50582654159469 32.50582654159469 32.50582654159469 32.50582654159469 32.50582654159469 32.50582654159469 32.50582654159469 32.50582654159469 32.50582654159469 32.50582654159469 32.50582654159469 32.50582654159469 32.50582654159469 32.50582654159469 32.50582654159469 32.50582654159469 32.50582654159469 32.50582654159469 32.50582654159469 32.50582654159469 32.50582654159469 32.50582654159469 32.50582654159469 32.50582654159469 32.50582654159469 32.50582654159469 32.50582654159469 32.50582654159469 32.50582654159469 32.50582654159469 32.50582654159469 32.50582654159469 32.50582654159469 32.50582654159469 32.50582654159469 32.50582654159469 32.50582654159469 32.50582654159469 32.50582654159469 32.50582654159469 32.50582654159469 32.50582654159469 32.50582654159469 32.50582654159469 32.50582654159469 32.50582654159469 32.50582654159469 32.50582654159469 32.50582654159469 32.50582654159469 32.50582654159469 32.50582654159469 32.50582654159469 32.50582654159469 32.50582654159469 32.50582654159469 32.50582654159469 32.50582654159469 32.50582654159469 32.50582654159469 32.50582654159469 32.50582654159469 32.50582654159469 32.50582654159469 32.50582654159469 32.50582654159469 32.50582654159469
667_param_0 128.6496119814288 128.6496119814288 128.6496119814288 128.6496119814288 128.6496119814288 128.6496119814288 128.6496119814288 128.6496119814288 128.6496119814288 128.6496119814288 128.6496119814288 128.6496119814288 128.6496119814288 128.6496119814288 128.6496119814288 128.6496119814288 128.6496119814288 128.6496119814288 128.6496119814288 128.6496119814288 128.6496119814288 128.6496119814288 128.6496119814288 128.6496119814288 128.6496119814288 128.6496119814288 128.6496119814288 128.6496119814288 128.6496119814288 128.6496119814288 128.6496119814288 128.6496119814288
670_param_0 576.485094089258 576.485094089258 576.485094089258 576.485094089258 576.485094089258 576.485094089258 576.485094089258 576.485094089258 576.485094089258 576.485094089258 576.485094089258 576.485094089258 576.485094089258 576.485094089258 576.485094089258 576.485094089258 576.485094089258 576.485094089258 576.485094089258 576.485094089258 576.485094089258 576.485094089258 576.485094089258 576.485094089258 576.485094089258 576.485094089258 576.485094089258 576.485094089258 576.485094089258 576.485094089258 576.485094089258 576.485094089258 576.485094089258 576.485094089258 576.485094089258 576.485094089258 576.485094089258 576.485094089258 576.485094089258 576.485094089258 576.485094089258 576.485094089258 576.485094089258 576.485094089258 576.485094089258 576.485094089258 576.485094089258 576.485094089258 576.485094089258 576.485094089258 576.485094089258 576.485094089258 576.485094089258 576.485094089258 576.485094089258 576.485094089258 576.485094089258 576.485094089258 576.485094089258 576.485094089258 576.485094089258 576.485094089258 576.485094089258 576.485094089258 576.485094089258 576.485094089258 576.485094089258 576.485094089258 576.485094089258 576.485094089258 576.485094089258 576.485094089258 576.485094089258 576.485094089258 576.485094089258 576.485094089258 576.485094089258 576.485094089258 576.485094089258 576.485094089258 576.485094089258 576.485094089258 576.485094089258 576.485094089258 576.485094089258 576.485094089258 576.485094089258 576.485094089258 576.485094089258 576.485094089258 576.485094089258 576.485094089258 576.485094089258 576.485094089258 576.485094089258 576.485094089258 576.485094089258 576.485094089258 576.485094089258 576.485094089258 576.485094089258 576.485094089258 576.485094089258 576.485094089258 576.485094089258 576.485094089258 576.485094089258 576.485094089258 576.485094089258 576.485094089258 576.485094089258 576.485094089258 576.485094089258 576.485094089258 576.485094089258 576.485094089258 576.485094089258 576.485094089258 576.485094089258 576.485094089258 576.485094089258 576.485094089258 576.485094089258 576.485094089258 576.485094089258 576.485094089258 576.485094089258 576.485094089258 576.485094089258 576.485094089258 576.485094089258 576.485094089258 576.485094089258 576.485094089258 576.485094089258 576.485094089258 576.485094089258 576.485094089258 576.485094089258 576.485094089258 576.485094089258 576.485094089258 576.485094089258 576.485094089258 576.485094089258 576.485094089258 576.485094089258 576.485094089258 576.485094089258 576.485094089258 576.485094089258 576.485094089258 576.485094089258 576.485094089258 576.485094089258 576.485094089258 576.485094089258 576.485094089258 576.485094089258 576.485094089258 576.485094089258 576.485094089258 576.485094089258 576.485094089258 576.485094089258 576.485094089258 576.485094089258 576.485094089258 576.485094089258 576.485094089258 576.485094089258 576.485094089258 576.485094089258 576.485094089258 576.485094089258 576.485094089258 576.485094089258 576.485094089258 576.485094089258 576.485094089258 576.485094089258 576.485094089258 576.485094089258 576.485094089258 576.485094089258 576.485094089258 576.485094089258 576.485094089258 576.485094089258 576.485094089258 576.485094089258 576.485094089258
673_param_0 69.35771419004074 69.35771419004074 69.35771419004074 69.35771419004074 69.35771419004074 69.35771419004074 69.35771419004074 69.35771419004074 69.35771419004074 69.35771419004074 69.35771419004074 69.35771419004074 69.35771419004074 69.35771419004074 69.35771419004074 69.35771419004074 69.35771419004074 69.35771419004074 69.35771419004074 69.35771419004074 69.35771419004074 69.35771419004074 69.35771419004074 69.35771419004074 69.35771419004074 69.35771419004074 69.35771419004074 69.35771419004074 69.35771419004074 69.35771419004074 69.35771419004074 69.35771419004074 69.35771419004074 69.35771419004074 69.35771419004074 69.35771419004074 69.35771419004074 69.35771419004074 69.35771419004074 69.35771419004074 69.35771419004074 69.35771419004074 69.35771419004074 69.35771419004074 69.35771419004074 69.35771419004074 69.35771419004074 69.35771419004074 69.35771419004074 69.35771419004074 69.35771419004074 69.35771419004074 69.35771419004074 69.35771419004074 69.35771419004074 69.35771419004074 69.35771419004074 69.35771419004074 69.35771419004074 69.35771419004074 69.35771419004074 69.35771419004074 69.35771419004074 69.35771419004074 69.35771419004074 69.35771419004074 69.35771419004074 69.35771419004074 69.35771419004074 69.35771419004074 69.35771419004074 69.35771419004074 69.35771419004074 69.35771419004074 69.35771419004074 69.35771419004074 69.35771419004074 69.35771419004074 69.35771419004074 69.35771419004074 69.35771419004074 69.35771419004074 69.35771419004074 69.35771419004074 69.35771419004074 69.35771419004074 69.35771419004074 69.35771419004074 69.35771419004074 69.35771419004074 69.35771419004074 69.35771419004074 69.35771419004074 69.35771419004074 69.35771419004074 69.35771419004074 69.35771419004074 69.35771419004074 69.35771419004074 69.35771419004074 69.35771419004074 69.35771419004074 69.35771419004074 69.35771419004074 69.35771419004074 69.35771419004074 69.35771419004074 69.35771419004074 69.35771419004074 69.35771419004074 69.35771419004074 69.35771419004074 69.35771419004074 69.35771419004074 69.35771419004074 69.35771419004074 69.35771419004074 69.35771419004074 69.35771419004074 69.35771419004074 69.35771419004074 69.35771419004074 69.35771419004074 69.35771419004074 69.35771419004074 69.35771419004074 69.35771419004074 69.35771419004074 69.35771419004074 69.35771419004074 69.35771419004074 69.35771419004074 69.35771419004074 69.35771419004074 69.35771419004074 69.35771419004074 69.35771419004074 69.35771419004074 69.35771419004074 69.35771419004074 69.35771419004074 69.35771419004074 69.35771419004074 69.35771419004074 69.35771419004074 69.35771419004074 69.35771419004074 69.35771419004074 69.35771419004074 69.35771419004074 69.35771419004074 69.35771419004074 69.35771419004074 69.35771419004074 69.35771419004074 69.35771419004074 69.35771419004074 69.35771419004074 69.35771419004074 69.35771419004074 69.35771419004074 69.35771419004074 69.35771419004074 69.35771419004074 69.35771419004074 69.35771419004074 69.35771419004074 69.35771419004074 69.35771419004074 69.35771419004074 69.35771419004074 69.35771419004074 69.35771419004074 69.35771419004074 69.35771419004074 69.35771419004074 69.35771419004074 69.35771419004074 69.35771419004074 69.35771419004074 69.35771419004074 69.35771419004074 69.35771419004074 69.35771419004074 69.35771419004074 69.35771419004074 69.35771419004074 69.35771419004074 69.35771419004074 69.35771419004074 69.35771419004074 69.35771419004074
676_param_0 199.03109793062617 199.03109793062617 199.03109793062617 199.03109793062617 199.03109793062617 199.03109793062617 199.03109793062617 199.03109793062617 199.03109793062617 199.03109793062617 199.03109793062617 199.03109793062617 199.03109793062617 199.03109793062617 199.03109793062617 199.03109793062617 199.03109793062617 199.03109793062617 199.03109793062617 199.03109793062617 199.03109793062617 199.03109793062617 199.03109793062617 199.03109793062617 199.03109793062617 199.03109793062617 199.03109793062617 199.03109793062617 199.03109793062617 199.03109793062617 199.03109793062617 199.03109793062617 199.03109793062617 199.03109793062617 199.03109793062617 199.03109793062617 199.03109793062617 199.03109793062617 199.03109793062617 199.03109793062617 199.03109793062617 199.03109793062617 199.03109793062617 199.03109793062617 199.03109793062617 199.03109793062617 199.03109793062617 199.03109793062617 199.03109793062617 199.03109793062617 199.03109793062617 199.03109793062617 199.03109793062617 199.03109793062617 199.03109793062617 199.03109793062617 199.03109793062617 199.03109793062617 199.03109793062617 199.03109793062617 199.03109793062617 199.03109793062617 199.03109793062617 199.03109793062617
678_param_0 699.9341284450018 699.9341284450018 699.9341284450018 699.9341284450018 699.9341284450018 699.9341284450018 699.9341284450018 699.9341284450018 699.9341284450018 699.9341284450018 699.9341284450018 699.9341284450018 699.9341284450018 699.9341284450018 699.9341284450018 699.9341284450018 699.9341284450018 699.9341284450018 699.9341284450018 699.9341284450018 699.9341284450018 699.9341284450018 699.9341284450018 699.9341284450018 699.9341284450018 699.9341284450018 699.9341284450018 699.9341284450018 699.9341284450018 699.9341284450018 699.9341284450018 699.9341284450018 699.9341284450018 699.9341284450018 699.9341284450018 699.9341284450018 699.9341284450018 699.9341284450018 699.9341284450018 699.9341284450018 699.9341284450018 699.9341284450018 699.9341284450018 699.9341284450018 699.9341284450018 699.9341284450018 699.9341284450018 699.9341284450018 699.9341284450018 699.9341284450018 699.9341284450018 699.9341284450018 699.9341284450018 699.9341284450018 699.9341284450018 699.9341284450018 699.9341284450018 699.9341284450018 699.9341284450018 699.9341284450018 699.9341284450018 699.9341284450018 699.9341284450018 699.9341284450018 699.9341284450018 699.9341284450018 699.9341284450018 699.9341284450018 699.9341284450018 699.9341284450018 699.9341284450018 699.9341284450018 699.9341284450018 699.9341284450018 699.9341284450018 699.9341284450018 699.9341284450018 699.9341284450018 699.9341284450018 699.9341284450018 699.9341284450018 699.9341284450018 699.9341284450018 699.9341284450018 699.9341284450018 699.9341284450018 699.9341284450018 699.9341284450018 699.9341284450018 699.9341284450018 699.9341284450018 699.9341284450018 699.9341284450018 699.9341284450018 699.9341284450018 699.9341284450018 699.9341284450018 699.9341284450018 699.9341284450018 699.9341284450018 699.9341284450018 699.9341284450018 699.9341284450018 699.9341284450018 699.9341284450018 699.9341284450018 699.9341284450018 699.9341284450018 699.9341284450018 699.9341284450018 699.9341284450018 699.9341284450018 699.9341284450018 699.9341284450018 699.9341284450018 699.9341284450018 699.9341284450018 699.9341284450018 699.9341284450018 699.9341284450018 699.9341284450018 699.9341284450018 699.9341284450018 699.9341284450018 699.9341284450018 699.9341284450018 699.9341284450018 699.9341284450018 699.9341284450018 699.9341284450018 699.9341284450018 699.9341284450018 699.9341284450018 699.9341284450018 699.9341284450018 699.9341284450018 699.9341284450018 699.9341284450018 699.9341284450018 699.9341284450018 699.9341284450018 699.9341284450018 699.9341284450018 699.9341284450018 699.9341284450018 699.9341284450018 699.9341284450018 699.9341284450018 699.9341284450018 699.9341284450018 699.9341284450018 699.9341284450018 699.9341284450018 699.9341284450018 699.9341284450018 699.9341284450018 699.9341284450018 699.9341284450018 699.9341284450018 699.9341284450018 699.9341284450018 699.9341284450018 699.9341284450018 699.9341284450018 699.9341284450018 699.9341284450018 699.9341284450018 699.9341284450018 699.9341284450018 699.9341284450018 699.9341284450018 699.9341284450018 699.9341284450018 699.9341284450018 699.9341284450018 699.9341284450018 699.9341284450018 699.9341284450018 699.9341284450018 699.9341284450018 699.9341284450018 699.9341284450018 699.9341284450018 699.9341284450018 699.9341284450018 699.9341284450018 699.9341284450018 699.9341284450018 699.9341284450018 699.9341284450018 699.9341284450018 699.9341284450018 699.9341284450018 699.9341284450018 699.9341284450018 699.9341284450018 699.9341284450018 699.9341284450018 699.9341284450018 699.9341284450018 699.9341284450018 699.9341284450018 699.9341284450018 699.9341284450018 699.9341284450018 699.9341284450018 699.9341284450018 699.9341284450018 699.9341284450018 699.9341284450018 699.9341284450018 699.9341284450018 699.9341284450018 699.9341284450018 699.9341284450018 699.9341284450018 699.9341284450018 699.9341284450018 699.9341284450018 699.9341284450018 699.9341284450018 699.9341284450018 699.9341284450018 699.9341284450018 699.9341284450018 699.9341284450018 699.9341284450018 699.9341284450018 699.9341284450018 699.9341284450018 699.9341284450018 699.9341284450018 699.9341284450018 699.9341284450018 699.9341284450018 699.9341284450018 699.9341284450018 699.9341284450018 699.9341284450018 699.9341284450018 699.9341284450018 699.9341284450018 699.9341284450018 699.9341284450018 699.9341284450018 699.9341284450018 699.9341284450018 699.9341284450018 699.9341284450018 699.9341284450018 699.9341284450018 699.9341284450018 699.9341284450018 699.9341284450018 699.9341284450018 699.9341284450018 699.9341284450018 699.9341284450018 699.9341284450018 699.9341284450018 699.9341284450018 699.9341284450018 699.9341284450018 699.9341284450018 699.9341284450018 699.9341284450018 699.9341284450018 699.9341284450018 699.9341284450018 699.9341284450018 699.9341284450018 699.9341284450018 699.9341284450018 699.9341284450018 699.9341284450018 699.9341284450018 699.9341284450018 699.9341284450018 699.9341284450018 699.9341284450018 699.9341284450018 699.9341284450018 699.9341284450018 699.9341284450018 699.9341284450018 699.9341284450018 699.9341284450018 699.9341284450018 699.9341284450018 699.9341284450018 699.9341284450018 699.9341284450018 699.9341284450018 699.9341284450018 699.9341284450018 699.9341284450018 699.9341284450018 699.9341284450018 699.9341284450018 699.9341284450018 699.9341284450018 699.9341284450018 699.9341284450018 699.9341284450018 699.9341284450018 699.9341284450018 699.9341284450018 699.9341284450018 699.9341284450018 699.9341284450018 699.9341284450018 699.9341284450018 699.9341284450018 699.9341284450018 699.9341284450018 699.9341284450018 699.9341284450018 699.9341284450018 699.9341284450018 699.9341284450018 699.9341284450018 699.9341284450018 699.9341284450018 699.9341284450018 699.9341284450018 699.9341284450018 699.9341284450018 699.9341284450018 699.9341284450018 699.9341284450018 699.9341284450018 699.9341284450018 699.9341284450018 699.9341284450018 699.9341284450018 699.9341284450018 699.9341284450018 699.9341284450018 699.9341284450018 699.9341284450018 699.9341284450018 699.9341284450018 699.9341284450018 699.9341284450018 699.9341284450018 699.9341284450018 699.9341284450018 699.9341284450018 699.9341284450018 699.9341284450018 699.9341284450018 699.9341284450018 699.9341284450018 699.9341284450018 699.9341284450018 699.9341284450018 699.9341284450018 699.9341284450018 699.9341284450018 699.9341284450018 699.9341284450018 699.9341284450018 699.9341284450018 699.9341284450018 699.9341284450018 699.9341284450018 699.9341284450018 699.9341284450018 699.9341284450018 699.9341284450018 699.9341284450018 699.9341284450018 699.9341284450018 699.9341284450018 699.9341284450018 699.9341284450018 699.9341284450018 699.9341284450018 699.9341284450018 699.9341284450018 699.9341284450018 699.9341284450018 699.9341284450018 699.9341284450018
681_param_0 46.63827551518584 46.63827551518584 46.63827551518584 46.63827551518584 46.63827551518584 46.63827551518584 46.63827551518584 46.63827551518584 46.63827551518584 46.63827551518584 46.63827551518584 46.63827551518584 46.63827551518584 46.63827551518584 46.63827551518584 46.63827551518584 46.63827551518584 46.63827551518584 46.63827551518584 46.63827551518584 46.63827551518584 46.63827551518584 46.63827551518584 46.63827551518584 46.63827551518584 46.63827551518584 46.63827551518584 46.63827551518584 46.63827551518584 46.63827551518584 46.63827551518584 46.63827551518584 46.63827551518584 46.63827551518584 46.63827551518584 46.63827551518584 46.63827551518584 46.63827551518584 46.63827551518584 46.63827551518584 46.63827551518584 46.63827551518584 46.63827551518584 46.63827551518584 46.63827551518584 46.63827551518584 46.63827551518584 46.63827551518584 46.63827551518584 46.63827551518584 46.63827551518584 46.63827551518584 46.63827551518584 46.63827551518584 46.63827551518584 46.63827551518584 46.63827551518584 46.63827551518584 46.63827551518584 46.63827551518584 46.63827551518584 46.63827551518584 46.63827551518584 46.63827551518584 46.63827551518584 46.63827551518584 46.63827551518584 46.63827551518584 46.63827551518584 46.63827551518584 46.63827551518584 46.63827551518584 46.63827551518584 46.63827551518584 46.63827551518584 46.63827551518584 46.63827551518584 46.63827551518584 46.63827551518584 46.63827551518584 46.63827551518584 46.63827551518584 46.63827551518584 46.63827551518584 46.63827551518584 46.63827551518584 46.63827551518584 46.63827551518584 46.63827551518584 46.63827551518584 46.63827551518584 46.63827551518584 46.63827551518584 46.63827551518584 46.63827551518584 46.63827551518584 46.63827551518584 46.63827551518584 46.63827551518584 46.63827551518584 46.63827551518584 46.63827551518584 46.63827551518584 46.63827551518584 46.63827551518584 46.63827551518584 46.63827551518584 46.63827551518584 46.63827551518584 46.63827551518584 46.63827551518584 46.63827551518584 46.63827551518584 46.63827551518584 46.63827551518584 46.63827551518584 46.63827551518584 46.63827551518584 46.63827551518584 46.63827551518584 46.63827551518584 46.63827551518584 46.63827551518584 46.63827551518584 46.63827551518584 46.63827551518584 46.63827551518584 46.63827551518584 46.63827551518584 46.63827551518584 46.63827551518584 46.63827551518584 46.63827551518584 46.63827551518584 46.63827551518584 46.63827551518584 46.63827551518584 46.63827551518584 46.63827551518584 46.63827551518584 46.63827551518584 46.63827551518584 46.63827551518584 46.63827551518584 46.63827551518584 46.63827551518584 46.63827551518584 46.63827551518584 46.63827551518584 46.63827551518584 46.63827551518584 46.63827551518584 46.63827551518584 46.63827551518584 46.63827551518584 46.63827551518584 46.63827551518584 46.63827551518584 46.63827551518584 46.63827551518584 46.63827551518584 46.63827551518584 46.63827551518584 46.63827551518584 46.63827551518584 46.63827551518584 46.63827551518584 46.63827551518584 46.63827551518584 46.63827551518584 46.63827551518584 46.63827551518584 46.63827551518584 46.63827551518584 46.63827551518584 46.63827551518584 46.63827551518584 46.63827551518584 46.63827551518584 46.63827551518584 46.63827551518584 46.63827551518584 46.63827551518584 46.63827551518584 46.63827551518584 46.63827551518584 46.63827551518584 46.63827551518584 46.63827551518584 46.63827551518584 46.63827551518584 46.63827551518584 46.63827551518584 46.63827551518584 46.63827551518584 46.63827551518584 46.63827551518584 46.63827551518584 46.63827551518584 46.63827551518584 46.63827551518584 46.63827551518584 46.63827551518584 46.63827551518584 46.63827551518584 46.63827551518584 46.63827551518584 46.63827551518584 46.63827551518584 46.63827551518584 46.63827551518584 46.63827551518584 46.63827551518584 46.63827551518584 46.63827551518584 46.63827551518584 46.63827551518584 46.63827551518584 46.63827551518584 46.63827551518584 46.63827551518584 46.63827551518584 46.63827551518584 46.63827551518584 46.63827551518584 46.63827551518584 46.63827551518584 46.63827551518584 46.63827551518584 46.63827551518584 46.63827551518584 46.63827551518584 46.63827551518584 46.63827551518584 46.63827551518584 46.63827551518584 46.63827551518584 46.63827551518584 46.63827551518584 46.63827551518584 46.63827551518584 46.63827551518584 46.63827551518584 46.63827551518584 46.63827551518584 46.63827551518584 46.63827551518584 46.63827551518584 46.63827551518584 46.63827551518584 46.63827551518584 46.63827551518584 46.63827551518584 46.63827551518584 46.63827551518584 46.63827551518584 46.63827551518584 46.63827551518584 46.63827551518584 46.63827551518584 46.63827551518584 46.63827551518584 46.63827551518584 46.63827551518584 46.63827551518584 46.63827551518584 46.63827551518584 46.63827551518584 46.63827551518584 46.63827551518584 46.63827551518584 46.63827551518584 46.63827551518584 46.63827551518584 46.63827551518584 46.63827551518584 46.63827551518584 46.63827551518584 46.63827551518584 46.63827551518584 46.63827551518584 46.63827551518584 46.63827551518584 46.63827551518584 46.63827551518584 46.63827551518584 46.63827551518584 46.63827551518584 46.63827551518584 46.63827551518584 46.63827551518584 46.63827551518584 46.63827551518584 46.63827551518584 46.63827551518584 46.63827551518584 46.63827551518584 46.63827551518584 46.63827551518584 46.63827551518584 46.63827551518584 46.63827551518584 46.63827551518584 46.63827551518584 46.63827551518584 46.63827551518584 46.63827551518584 46.63827551518584 46.63827551518584 46.63827551518584 46.63827551518584 46.63827551518584 46.63827551518584 46.63827551518584 46.63827551518584 46.63827551518584 46.63827551518584 46.63827551518584 46.63827551518584 46.63827551518584 46.63827551518584 46.63827551518584 46.63827551518584 46.63827551518584 46.63827551518584 46.63827551518584 46.63827551518584 46.63827551518584 46.63827551518584 46.63827551518584 46.63827551518584 46.63827551518584 46.63827551518584 46.63827551518584 46.63827551518584 46.63827551518584 46.63827551518584 46.63827551518584 46.63827551518584 46.63827551518584 46.63827551518584 46.63827551518584 46.63827551518584 46.63827551518584 46.63827551518584 46.63827551518584 46.63827551518584 46.63827551518584 46.63827551518584 46.63827551518584 46.63827551518584 46.63827551518584 46.63827551518584 46.63827551518584 46.63827551518584 46.63827551518584 46.63827551518584 46.63827551518584 46.63827551518584 46.63827551518584 46.63827551518584 46.63827551518584 46.63827551518584 46.63827551518584 46.63827551518584 46.63827551518584 46.63827551518584 46.63827551518584 46.63827551518584 46.63827551518584 46.63827551518584 46.63827551518584 46.63827551518584 46.63827551518584 46.63827551518584 46.63827551518584 46.63827551518584 46.63827551518584 46.63827551518584 46.63827551518584 46.63827551518584 46.63827551518584 46.63827551518584 46.63827551518584
684_param_0 138.56462141792403 138.56462141792403 138.56462141792403 138.56462141792403 138.56462141792403 138.56462141792403 138.56462141792403 138.56462141792403 138.56462141792403 138.56462141792403 138.56462141792403 138.56462141792403 138.56462141792403 138.56462141792403 138.56462141792403 138.56462141792403 138.56462141792403 138.56462141792403 138.56462141792403 138.56462141792403 138.56462141792403 138.56462141792403 138.56462141792403 138.56462141792403 138.56462141792403 138.56462141792403 138.56462141792403 138.56462141792403 138.56462141792403 138.56462141792403 138.56462141792403 138.56462141792403 138.56462141792403 138.56462141792403 138.56462141792403 138.56462141792403 138.56462141792403 138.56462141792403 138.56462141792403 138.56462141792403 138.56462141792403 138.56462141792403 138.56462141792403 138.56462141792403 138.56462141792403 138.56462141792403 138.56462141792403 138.56462141792403 138.56462141792403 138.56462141792403 138.56462141792403 138.56462141792403 138.56462141792403 138.56462141792403 138.56462141792403 138.56462141792403 138.56462141792403 138.56462141792403 138.56462141792403 138.56462141792403 138.56462141792403 138.56462141792403 138.56462141792403 138.56462141792403
687_param_0 891.455267907698 891.455267907698 891.455267907698 891.455267907698 891.455267907698 891.455267907698 891.455267907698 891.455267907698 891.455267907698 891.455267907698 891.455267907698 891.455267907698 891.455267907698 891.455267907698 891.455267907698 891.455267907698 891.455267907698 891.455267907698 891.455267907698 891.455267907698 891.455267907698 891.455267907698 891.455267907698 891.455267907698 891.455267907698 891.455267907698 891.455267907698 891.455267907698 891.455267907698 891.455267907698 891.455267907698 891.455267907698 891.455267907698 891.455267907698 891.455267907698 891.455267907698 891.455267907698 891.455267907698 891.455267907698 891.455267907698 891.455267907698 891.455267907698 891.455267907698 891.455267907698 891.455267907698 891.455267907698 891.455267907698 891.455267907698 891.455267907698 891.455267907698 891.455267907698 891.455267907698 891.455267907698 891.455267907698 891.455267907698 891.455267907698 891.455267907698 891.455267907698 891.455267907698 891.455267907698 891.455267907698 891.455267907698 891.455267907698 891.455267907698 891.455267907698 891.455267907698 891.455267907698 891.455267907698 891.455267907698 891.455267907698 891.455267907698 891.455267907698 891.455267907698 891.455267907698 891.455267907698 891.455267907698 891.455267907698 891.455267907698 891.455267907698 891.455267907698 891.455267907698 891.455267907698 891.455267907698 891.455267907698 891.455267907698 891.455267907698 891.455267907698 891.455267907698 891.455267907698 891.455267907698 891.455267907698 891.455267907698 891.455267907698 891.455267907698 891.455267907698 891.455267907698 891.455267907698 891.455267907698 891.455267907698 891.455267907698 891.455267907698 891.455267907698 891.455267907698 891.455267907698 891.455267907698 891.455267907698 891.455267907698 891.455267907698 891.455267907698 891.455267907698 891.455267907698 891.455267907698 891.455267907698 891.455267907698 891.455267907698 891.455267907698 891.455267907698 891.455267907698 891.455267907698 891.455267907698 891.455267907698 891.455267907698 891.455267907698 891.455267907698 891.455267907698 891.455267907698 891.455267907698 891.455267907698 891.455267907698 891.455267907698 891.455267907698 891.455267907698 891.455267907698 891.455267907698 891.455267907698 891.455267907698 891.455267907698 891.455267907698 891.455267907698 891.455267907698 891.455267907698 891.455267907698 891.455267907698 891.455267907698 891.455267907698 891.455267907698 891.455267907698 891.455267907698 891.455267907698 891.455267907698 891.455267907698 891.455267907698 891.455267907698 891.455267907698 891.455267907698 891.455267907698 891.455267907698 891.455267907698 891.455267907698 891.455267907698 891.455267907698 891.455267907698 891.455267907698 891.455267907698 891.455267907698 891.455267907698 891.455267907698 891.455267907698 891.455267907698 891.455267907698 891.455267907698 891.455267907698 891.455267907698 891.455267907698 891.455267907698 891.455267907698 891.455267907698 891.455267907698 891.455267907698 891.455267907698 891.455267907698 891.455267907698 891.455267907698 891.455267907698 891.455267907698 891.455267907698 891.455267907698 891.455267907698 891.455267907698 891.455267907698 891.455267907698 891.455267907698 891.455267907698 891.455267907698 891.455267907698 891.455267907698 891.455267907698 891.455267907698 891.455267907698 891.455267907698 891.455267907698 891.455267907698 891.455267907698 891.455267907698 891.455267907698 891.455267907698 891.455267907698 891.455267907698 891.455267907698 891.455267907698 891.455267907698 891.455267907698 891.455267907698 891.455267907698 891.455267907698 891.455267907698 891.455267907698 891.455267907698 891.455267907698 891.455267907698 891.455267907698 891.455267907698 891.455267907698 891.455267907698 891.455267907698 891.455267907698 891.455267907698 891.455267907698 891.455267907698 891.455267907698 891.455267907698 891.455267907698 891.455267907698 891.455267907698 891.455267907698 891.455267907698 891.455267907698 891.455267907698 891.455267907698 891.455267907698 891.455267907698 891.455267907698 891.455267907698 891.455267907698 891.455267907698 891.455267907698 891.455267907698 891.455267907698 891.455267907698 891.455267907698 891.455267907698 891.455267907698 891.455267907698 891.455267907698 891.455267907698 891.455267907698 891.455267907698 891.455267907698 891.455267907698 891.455267907698 891.455267907698 891.455267907698 891.455267907698 891.455267907698 891.455267907698 891.455267907698 891.455267907698 891.455267907698 891.455267907698 891.455267907698 891.455267907698 891.455267907698 891.455267907698 891.455267907698 891.455267907698 891.455267907698 891.455267907698 891.455267907698 891.455267907698 891.455267907698 891.455267907698 891.455267907698 891.455267907698 891.455267907698 891.455267907698 891.455267907698 891.455267907698 891.455267907698 891.455267907698 891.455267907698 891.455267907698 891.455267907698 891.455267907698 891.455267907698 891.455267907698 891.455267907698 891.455267907698 891.455267907698 891.455267907698 891.455267907698 891.455267907698 891.455267907698 891.455267907698 891.455267907698 891.455267907698 891.455267907698 891.455267907698 891.455267907698 891.455267907698 891.455267907698 891.455267907698 891.455267907698 891.455267907698 891.455267907698 891.455267907698 891.455267907698 891.455267907698 891.455267907698 891.455267907698 891.455267907698 891.455267907698 891.455267907698 891.455267907698 891.455267907698 891.455267907698 891.455267907698 891.455267907698 891.455267907698 891.455267907698 891.455267907698 891.455267907698 891.455267907698 891.455267907698 891.455267907698 891.455267907698 891.455267907698 891.455267907698 891.455267907698 891.455267907698 891.455267907698 891.455267907698 891.455267907698 891.455267907698 891.455267907698 891.455267907698 891.455267907698 891.455267907698 891.455267907698 891.455267907698 891.455267907698 891.455267907698 891.455267907698 891.455267907698 891.455267907698 891.455267907698 891.455267907698 891.455267907698 891.455267907698 891.455267907698 891.455267907698 891.455267907698 891.455267907698 891.455267907698 891.455267907698 891.455267907698 891.455267907698 891.455267907698 891.455267907698 891.455267907698 891.455267907698 891.455267907698 891.455267907698 891.455267907698 891.455267907698 891.455267907698 891.455267907698 891.455267907698 891.455267907698 891.455267907698 891.455267907698 891.455267907698 891.455267907698 891.455267907698 891.455267907698
690_param_0 42.2558887349803 42.2558887349803 42.2558887349803 42.2558887349803 42.2558887349803 42.2558887349803 42.2558887349803 42.2558887349803 42.2558887349803 42.2558887349803 42.2558887349803 42.2558887349803 42.2558887349803 42.2558887349803 42.2558887349803 42.2558887349803 42.2558887349803 42.2558887349803 42.2558887349803 42.2558887349803 42.2558887349803 42.2558887349803 42.2558887349803 42.2558887349803 42.2558887349803 42.2558887349803 42.2558887349803 42.2558887349803 42.2558887349803 42.2558887349803 42.2558887349803 42.2558887349803 42.2558887349803 42.2558887349803 42.2558887349803 42.2558887349803 42.2558887349803 42.2558887349803 42.2558887349803 42.2558887349803 42.2558887349803 42.2558887349803 42.2558887349803 42.2558887349803 42.2558887349803 42.2558887349803 42.2558887349803 42.2558887349803 42.2558887349803 42.2558887349803 42.2558887349803 42.2558887349803 42.2558887349803 42.2558887349803 42.2558887349803 42.2558887349803 42.2558887349803 42.2558887349803 42.2558887349803 42.2558887349803 42.2558887349803 42.2558887349803 42.2558887349803 42.2558887349803 42.2558887349803 42.2558887349803 42.2558887349803 42.2558887349803 42.2558887349803 42.2558887349803 42.2558887349803 42.2558887349803 42.2558887349803 42.2558887349803 42.2558887349803 42.2558887349803 42.2558887349803 42.2558887349803 42.2558887349803 42.2558887349803 42.2558887349803 42.2558887349803 42.2558887349803 42.2558887349803 42.2558887349803 42.2558887349803 42.2558887349803 42.2558887349803 42.2558887349803 42.2558887349803 42.2558887349803 42.2558887349803 42.2558887349803 42.2558887349803 42.2558887349803 42.2558887349803 42.2558887349803 42.2558887349803 42.2558887349803 42.2558887349803 42.2558887349803 42.2558887349803 42.2558887349803 42.2558887349803 42.2558887349803 42.2558887349803 42.2558887349803 42.2558887349803 42.2558887349803 42.2558887349803 42.2558887349803 42.2558887349803 42.2558887349803 42.2558887349803 42.2558887349803 42.2558887349803 42.2558887349803 42.2558887349803 42.2558887349803 42.2558887349803 42.2558887349803 42.2558887349803 42.2558887349803 42.2558887349803 42.2558887349803 42.2558887349803 42.2558887349803 42.2558887349803 42.2558887349803 42.2558887349803 42.2558887349803 42.2558887349803 42.2558887349803 42.2558887349803 42.2558887349803 42.2558887349803 42.2558887349803 42.2558887349803 42.2558887349803 42.2558887349803 42.2558887349803 42.2558887349803 42.2558887349803 42.2558887349803 42.2558887349803 42.2558887349803 42.2558887349803 42.2558887349803 42.2558887349803 42.2558887349803 42.2558887349803 42.2558887349803 42.2558887349803 42.2558887349803 42.2558887349803 42.2558887349803 42.2558887349803 42.2558887349803 42.2558887349803 42.2558887349803 42.2558887349803 42.2558887349803 42.2558887349803 42.2558887349803 42.2558887349803 42.2558887349803 42.2558887349803 42.2558887349803 42.2558887349803 42.2558887349803 42.2558887349803 42.2558887349803 42.2558887349803 42.2558887349803 42.2558887349803 42.2558887349803 42.2558887349803 42.2558887349803 42.2558887349803 42.2558887349803 42.2558887349803 42.2558887349803 42.2558887349803 42.2558887349803 42.2558887349803 42.2558887349803 42.2558887349803 42.2558887349803 42.2558887349803 42.2558887349803 42.2558887349803 42.2558887349803 42.2558887349803 42.2558887349803 42.2558887349803 42.2558887349803 42.2558887349803 42.2558887349803 42.2558887349803 42.2558887349803 42.2558887349803 42.2558887349803 42.2558887349803 42.2558887349803 42.2558887349803 42.2558887349803 42.2558887349803 42.2558887349803 42.2558887349803 42.2558887349803 42.2558887349803 42.2558887349803 42.2558887349803 42.2558887349803 42.2558887349803 42.2558887349803 42.2558887349803 42.2558887349803 42.2558887349803 42.2558887349803 42.2558887349803 42.2558887349803 42.2558887349803 42.2558887349803 42.2558887349803 42.2558887349803 42.2558887349803 42.2558887349803 42.2558887349803 42.2558887349803 42.2558887349803 42.2558887349803 42.2558887349803 42.2558887349803 42.2558887349803 42.2558887349803 42.2558887349803 42.2558887349803 42.2558887349803 42.2558887349803 42.2558887349803 42.2558887349803 42.2558887349803 42.2558887349803 42.2558887349803 42.2558887349803 42.2558887349803 42.2558887349803 42.2558887349803 42.2558887349803 42.2558887349803 42.2558887349803 42.2558887349803 42.2558887349803 42.2558887349803 42.2558887349803 42.2558887349803 42.2558887349803 42.2558887349803 42.2558887349803 42.2558887349803 42.2558887349803 42.2558887349803 42.2558887349803 42.2558887349803 42.2558887349803 42.2558887349803 42.2558887349803 42.2558887349803 42.2558887349803 42.2558887349803 42.2558887349803 42.2558887349803 42.2558887349803 42.2558887349803 42.2558887349803 42.2558887349803 42.2558887349803 42.2558887349803 42.2558887349803 42.2558887349803 42.2558887349803 42.2558887349803 42.2558887349803 42.2558887349803 42.2558887349803 42.2558887349803 42.2558887349803 42.2558887349803 42.2558887349803 42.2558887349803 42.2558887349803 42.2558887349803 42.2558887349803 42.2558887349803 42.2558887349803 42.2558887349803 42.2558887349803 42.2558887349803 42.2558887349803 42.2558887349803 42.2558887349803 42.2558887349803 42.2558887349803 42.2558887349803 42.2558887349803 42.2558887349803 42.2558887349803 42.2558887349803 42.2558887349803 42.2558887349803 42.2558887349803 42.2558887349803 42.2558887349803 42.2558887349803 42.2558887349803 42.2558887349803 42.2558887349803 42.2558887349803 42.2558887349803 42.2558887349803 42.2558887349803 42.2558887349803 42.2558887349803 42.2558887349803 42.2558887349803 42.2558887349803 42.2558887349803 42.2558887349803 42.2558887349803 42.2558887349803 42.2558887349803 42.2558887349803 42.2558887349803 42.2558887349803 42.2558887349803 42.2558887349803 42.2558887349803 42.2558887349803 42.2558887349803 42.2558887349803 42.2558887349803 42.2558887349803 42.2558887349803 42.2558887349803 42.2558887349803 42.2558887349803 42.2558887349803 42.2558887349803 42.2558887349803 42.2558887349803 42.2558887349803 42.2558887349803 42.2558887349803 42.2558887349803 42.2558887349803 42.2558887349803 42.2558887349803 42.2558887349803 42.2558887349803 42.2558887349803 42.2558887349803 42.2558887349803 42.2558887349803 42.2558887349803 42.2558887349803 42.2558887349803 42.2558887349803 42.2558887349803 42.2558887349803 42.2558887349803 42.2558887349803 42.2558887349803 42.2558887349803 42.2558887349803 42.2558887349803 42.2558887349803 42.2558887349803 42.2558887349803 42.2558887349803 42.2558887349803 42.2558887349803 42.2558887349803 42.2558887349803
693_param_0 110.42473187282594 110.42473187282594 110.42473187282594 110.42473187282594 110.42473187282594 110.42473187282594 110.42473187282594 110.42473187282594 110.42473187282594 110.42473187282594 110.42473187282594 110.42473187282594 110.42473187282594 110.42473187282594 110.42473187282594 110.42473187282594 110.42473187282594 110.42473187282594 110.42473187282594 110.42473187282594 110.42473187282594 110.42473187282594 110.42473187282594 110.42473187282594 110.42473187282594 110.42473187282594 110.42473187282594 110.42473187282594 110.42473187282594 110.42473187282594 110.42473187282594 110.42473187282594 110.42473187282594 110.42473187282594 110.42473187282594 110.42473187282594 110.42473187282594 110.42473187282594 110.42473187282594 110.42473187282594 110.42473187282594 110.42473187282594 110.42473187282594 110.42473187282594 110.42473187282594 110.42473187282594 110.42473187282594 110.42473187282594 110.42473187282594 110.42473187282594 110.42473187282594 110.42473187282594 110.42473187282594 110.42473187282594 110.42473187282594 110.42473187282594 110.42473187282594 110.42473187282594 110.42473187282594 110.42473187282594 110.42473187282594 110.42473187282594 110.42473187282594 110.42473187282594
696_param_0 839.0835176758831 839.0835176758831 839.0835176758831 839.0835176758831 839.0835176758831 839.0835176758831 839.0835176758831 839.0835176758831 839.0835176758831 839.0835176758831 839.0835176758831 839.0835176758831 839.0835176758831 839.0835176758831 839.0835176758831 839.0835176758831 839.0835176758831 839.0835176758831 839.0835176758831 839.0835176758831 839.0835176758831 839.0835176758831 839.0835176758831 839.0835176758831 839.0835176758831 839.0835176758831 839.0835176758831 839.0835176758831 839.0835176758831 839.0835176758831 839.0835176758831 839.0835176758831 839.0835176758831 839.0835176758831 839.0835176758831 839.0835176758831 839.0835176758831 839.0835176758831 839.0835176758831 839.0835176758831 839.0835176758831 839.0835176758831 839.0835176758831 839.0835176758831 839.0835176758831 839.0835176758831 839.0835176758831 839.0835176758831 839.0835176758831 839.0835176758831 839.0835176758831 839.0835176758831 839.0835176758831 839.0835176758831 839.0835176758831 839.0835176758831 839.0835176758831 839.0835176758831 839.0835176758831 839.0835176758831 839.0835176758831 839.0835176758831 839.0835176758831 839.0835176758831 839.0835176758831 839.0835176758831 839.0835176758831 839.0835176758831 839.0835176758831 839.0835176758831 839.0835176758831 839.0835176758831 839.0835176758831 839.0835176758831 839.0835176758831 839.0835176758831 839.0835176758831 839.0835176758831 839.0835176758831 839.0835176758831 839.0835176758831 839.0835176758831 839.0835176758831 839.0835176758831 839.0835176758831 839.0835176758831 839.0835176758831 839.0835176758831 839.0835176758831 839.0835176758831 839.0835176758831 839.0835176758831 839.0835176758831 839.0835176758831 839.0835176758831 839.0835176758831 839.0835176758831 839.0835176758831 839.0835176758831 839.0835176758831 839.0835176758831 839.0835176758831 839.0835176758831 839.0835176758831 839.0835176758831 839.0835176758831 839.0835176758831 839.0835176758831 839.0835176758831 839.0835176758831 839.0835176758831 839.0835176758831 839.0835176758831 839.0835176758831 839.0835176758831 839.0835176758831 839.0835176758831 839.0835176758831 839.0835176758831 839.0835176758831 839.0835176758831 839.0835176758831 839.0835176758831 839.0835176758831 839.0835176758831 839.0835176758831 839.0835176758831 839.0835176758831 839.0835176758831 839.0835176758831 839.0835176758831 839.0835176758831 839.0835176758831 839.0835176758831 839.0835176758831 839.0835176758831 839.0835176758831 839.0835176758831 839.0835176758831 839.0835176758831 839.0835176758831 839.0835176758831 839.0835176758831 839.0835176758831 839.0835176758831 839.0835176758831 839.0835176758831 839.0835176758831 839.0835176758831 839.0835176758831 839.0835176758831 839.0835176758831 839.0835176758831 839.0835176758831 839.0835176758831 839.0835176758831 839.0835176758831 839.0835176758831 839.0835176758831 839.0835176758831 839.0835176758831 839.0835176758831 839.0835176758831 839.0835176758831 839.0835176758831 839.0835176758831 839.0835176758831 839.0835176758831 839.0835176758831 839.0835176758831 839.0835176758831 839.0835176758831 839.0835176758831 839.0835176758831 839.0835176758831 839.0835176758831 839.0835176758831 839.0835176758831 839.0835176758831 839.0835176758831 839.0835176758831 839.0835176758831 839.0835176758831 839.0835176758831 839.0835176758831 839.0835176758831 839.0835176758831 839.0835176758831 839.0835176758831 839.0835176758831 839.0835176758831 839.0835176758831 839.0835176758831 839.0835176758831 839.0835176758831 839.0835176758831 839.0835176758831 839.0835176758831 839.0835176758831 839.0835176758831 839.0835176758831 839.0835176758831 839.0835176758831 839.0835176758831 839.0835176758831 839.0835176758831 839.0835176758831 839.0835176758831 839.0835176758831 839.0835176758831 839.0835176758831 839.0835176758831 839.0835176758831 839.0835176758831 839.0835176758831 839.0835176758831 839.0835176758831 839.0835176758831 839.0835176758831 839.0835176758831 839.0835176758831 839.0835176758831 839.0835176758831 839.0835176758831 839.0835176758831 839.0835176758831 839.0835176758831 839.0835176758831 839.0835176758831 839.0835176758831 839.0835176758831 839.0835176758831 839.0835176758831 839.0835176758831 839.0835176758831 839.0835176758831 839.0835176758831 839.0835176758831 839.0835176758831 839.0835176758831 839.0835176758831 839.0835176758831 839.0835176758831 839.0835176758831 839.0835176758831 839.0835176758831 839.0835176758831 839.0835176758831 839.0835176758831 839.0835176758831 839.0835176758831 839.0835176758831 839.0835176758831 839.0835176758831 839.0835176758831 839.0835176758831 839.0835176758831 839.0835176758831 839.0835176758831 839.0835176758831 839.0835176758831 839.0835176758831 839.0835176758831 839.0835176758831 839.0835176758831 839.0835176758831 839.0835176758831 839.0835176758831 839.0835176758831 839.0835176758831 839.0835176758831 839.0835176758831 839.0835176758831 839.0835176758831 839.0835176758831 839.0835176758831 839.0835176758831 839.0835176758831 839.0835176758831 839.0835176758831 839.0835176758831 839.0835176758831 839.0835176758831 839.0835176758831 839.0835176758831 839.0835176758831 839.0835176758831 839.0835176758831 839.0835176758831 839.0835176758831 839.0835176758831 839.0835176758831 839.0835176758831 839.0835176758831 839.0835176758831 839.0835176758831 839.0835176758831 839.0835176758831 839.0835176758831 839.0835176758831 839.0835176758831 839.0835176758831 839.0835176758831 839.0835176758831 839.0835176758831 839.0835176758831 839.0835176758831 839.0835176758831 839.0835176758831 839.0835176758831 839.0835176758831 839.0835176758831 839.0835176758831 839.0835176758831 839.0835176758831 839.0835176758831 839.0835176758831 839.0835176758831 839.0835176758831 839.0835176758831 839.0835176758831 839.0835176758831 839.0835176758831 839.0835176758831 839.0835176758831 839.0835176758831 839.0835176758831 839.0835176758831 839.0835176758831 839.0835176758831 839.0835176758831 839.0835176758831 839.0835176758831 839.0835176758831 839.0835176758831 839.0835176758831 839.0835176758831 839.0835176758831 839.0835176758831 839.0835176758831 839.0835176758831 839.0835176758831 839.0835176758831 839.0835176758831 839.0835176758831 839.0835176758831 839.0835176758831 839.0835176758831 839.0835176758831 839.0835176758831 839.0835176758831 839.0835176758831 839.0835176758831 839.0835176758831 839.0835176758831 839.0835176758831 839.0835176758831 839.0835176758831 839.0835176758831 839.0835176758831 839.0835176758831 839.0835176758831 839.0835176758831 839.0835176758831 839.0835176758831 839.0835176758831 839.0835176758831 839.0835176758831 839.0835176758831 839.0835176758831 839.0835176758831 839.0835176758831 839.0835176758831 839.0835176758831 839.0835176758831 839.0835176758831 839.0835176758831 839.0835176758831 839.0835176758831 839.0835176758831 839.0835176758831 839.0835176758831 839.0835176758831 839.0835176758831
699_param_0 50.06244035588873 50.06244035588873 50.06244035588873 50.06244035588873 50.06244035588873 50.06244035588873 50.06244035588873 50.06244035588873 50.06244035588873 50.06244035588873 50.06244035588873 50.06244035588873 50.06244035588873 50.06244035588873 50.06244035588873 50.06244035588873 50.06244035588873 50.06244035588873 50.06244035588873 50.06244035588873 50.06244035588873 50.06244035588873 50.06244035588873 50.06244035588873 50.06244035588873 50.06244035588873 50.06244035588873 50.06244035588873 50.06244035588873 50.06244035588873 50.06244035588873 50.06244035588873 50.06244035588873 50.06244035588873 50.06244035588873 50.06244035588873 50.06244035588873 50.06244035588873 50.06244035588873 50.06244035588873 50.06244035588873 50.06244035588873 50.06244035588873 50.06244035588873 50.06244035588873 50.06244035588873 50.06244035588873 50.06244035588873 50.06244035588873 50.06244035588873 50.06244035588873 50.06244035588873 50.06244035588873 50.06244035588873 50.06244035588873 50.06244035588873 50.06244035588873 50.06244035588873 50.06244035588873 50.06244035588873 50.06244035588873 50.06244035588873 50.06244035588873 50.06244035588873 50.06244035588873 50.06244035588873 50.06244035588873 50.06244035588873 50.06244035588873 50.06244035588873 50.06244035588873 50.06244035588873 50.06244035588873 50.06244035588873 50.06244035588873 50.06244035588873 50.06244035588873 50.06244035588873 50.06244035588873 50.06244035588873 50.06244035588873 50.06244035588873 50.06244035588873 50.06244035588873 50.06244035588873 50.06244035588873 50.06244035588873 50.06244035588873 50.06244035588873 50.06244035588873 50.06244035588873 50.06244035588873 50.06244035588873 50.06244035588873 50.06244035588873 50.06244035588873 50.06244035588873 50.06244035588873 50.06244035588873 50.06244035588873 50.06244035588873 50.06244035588873 50.06244035588873 50.06244035588873 50.06244035588873 50.06244035588873 50.06244035588873 50.06244035588873 50.06244035588873 50.06244035588873 50.06244035588873 50.06244035588873 50.06244035588873 50.06244035588873 50.06244035588873 50.06244035588873 50.06244035588873 50.06244035588873 50.06244035588873 50.06244035588873 50.06244035588873 50.06244035588873 50.06244035588873 50.06244035588873 50.06244035588873 50.06244035588873 50.06244035588873 50.06244035588873 50.06244035588873 50.06244035588873 50.06244035588873 50.06244035588873 50.06244035588873 50.06244035588873 50.06244035588873 50.06244035588873 50.06244035588873 50.06244035588873 50.06244035588873 50.06244035588873 50.06244035588873 50.06244035588873 50.06244035588873 50.06244035588873 50.06244035588873 50.06244035588873 50.06244035588873 50.06244035588873 50.06244035588873 50.06244035588873 50.06244035588873 50.06244035588873 50.06244035588873 50.06244035588873 50.06244035588873 50.06244035588873 50.06244035588873 50.06244035588873 50.06244035588873 50.06244035588873 50.06244035588873 50.06244035588873 50.06244035588873 50.06244035588873 50.06244035588873 50.06244035588873 50.06244035588873 50.06244035588873 50.06244035588873 50.06244035588873 50.06244035588873 50.06244035588873 50.06244035588873 50.06244035588873 50.06244035588873 50.06244035588873 50.06244035588873 50.06244035588873 50.06244035588873 50.06244035588873 50.06244035588873 50.06244035588873 50.06244035588873 50.06244035588873 50.06244035588873 50.06244035588873 50.06244035588873 50.06244035588873 50.06244035588873 50.06244035588873 50.06244035588873 50.06244035588873 50.06244035588873 50.06244035588873 50.06244035588873 50.06244035588873 50.06244035588873 50.06244035588873 50.06244035588873 50.06244035588873 50.06244035588873 50.06244035588873 50.06244035588873 50.06244035588873 50.06244035588873 50.06244035588873 50.06244035588873 50.06244035588873 50.06244035588873 50.06244035588873 50.06244035588873 50.06244035588873 50.06244035588873 50.06244035588873 50.06244035588873 50.06244035588873 50.06244035588873 50.06244035588873 50.06244035588873 50.06244035588873 50.06244035588873 50.06244035588873 50.06244035588873 50.06244035588873 50.06244035588873 50.06244035588873 50.06244035588873 50.06244035588873 50.06244035588873 50.06244035588873 50.06244035588873 50.06244035588873 50.06244035588873 50.06244035588873 50.06244035588873 50.06244035588873 50.06244035588873 50.06244035588873 50.06244035588873 50.06244035588873 50.06244035588873 50.06244035588873 50.06244035588873 50.06244035588873 50.06244035588873 50.06244035588873 50.06244035588873 50.06244035588873 50.06244035588873 50.06244035588873 50.06244035588873 50.06244035588873 50.06244035588873 50.06244035588873 50.06244035588873 50.06244035588873 50.06244035588873 50.06244035588873 50.06244035588873 50.06244035588873 50.06244035588873 50.06244035588873 50.06244035588873 50.06244035588873 50.06244035588873 50.06244035588873 50.06244035588873 50.06244035588873 50.06244035588873 50.06244035588873 50.06244035588873 50.06244035588873 50.06244035588873 50.06244035588873 50.06244035588873 50.06244035588873 50.06244035588873 50.06244035588873 50.06244035588873 50.06244035588873 50.06244035588873 50.06244035588873 50.06244035588873 50.06244035588873 50.06244035588873 50.06244035588873 50.06244035588873 50.06244035588873 50.06244035588873 50.06244035588873 50.06244035588873 50.06244035588873 50.06244035588873 50.06244035588873 50.06244035588873 50.06244035588873 50.06244035588873 50.06244035588873 50.06244035588873 50.06244035588873 50.06244035588873 50.06244035588873 50.06244035588873 50.06244035588873 50.06244035588873 50.06244035588873 50.06244035588873 50.06244035588873 50.06244035588873 50.06244035588873 50.06244035588873 50.06244035588873 50.06244035588873 50.06244035588873 50.06244035588873 50.06244035588873 50.06244035588873 50.06244035588873 50.06244035588873 50.06244035588873 50.06244035588873 50.06244035588873 50.06244035588873 50.06244035588873 50.06244035588873 50.06244035588873 50.06244035588873 50.06244035588873 50.06244035588873 50.06244035588873 50.06244035588873 50.06244035588873 50.06244035588873 50.06244035588873 50.06244035588873 50.06244035588873 50.06244035588873 50.06244035588873 50.06244035588873 50.06244035588873 50.06244035588873 50.06244035588873 50.06244035588873 50.06244035588873 50.06244035588873 50.06244035588873 50.06244035588873 50.06244035588873 50.06244035588873 50.06244035588873 50.06244035588873 50.06244035588873 50.06244035588873 50.06244035588873 50.06244035588873 50.06244035588873 50.06244035588873 50.06244035588873 50.06244035588873 50.06244035588873 50.06244035588873 50.06244035588873 50.06244035588873 50.06244035588873 50.06244035588873 50.06244035588873 50.06244035588873 50.06244035588873 50.06244035588873 50.06244035588873 50.06244035588873 50.06244035588873 50.06244035588873 50.06244035588873 50.06244035588873 50.06244035588873 50.06244035588873 50.06244035588873 50.06244035588873 50.06244035588873 50.06244035588873 50.06244035588873 50.06244035588873 50.06244035588873
702_param_0 117.25721881341016 117.25721881341016 117.25721881341016 117.25721881341016 117.25721881341016 117.25721881341016 117.25721881341016 117.25721881341016 117.25721881341016 117.25721881341016 117.25721881341016 117.25721881341016 117.25721881341016 117.25721881341016 117.25721881341016 117.25721881341016 117.25721881341016 117.25721881341016 117.25721881341016 117.25721881341016 117.25721881341016 117.25721881341016 117.25721881341016 117.25721881341016 117.25721881341016 117.25721881341016 117.25721881341016 117.25721881341016 117.25721881341016 117.25721881341016 117.25721881341016 117.25721881341016 117.25721881341016 117.25721881341016 117.25721881341016 117.25721881341016 117.25721881341016 117.25721881341016 117.25721881341016 117.25721881341016 117.25721881341016 117.25721881341016 117.25721881341016 117.25721881341016 117.25721881341016 117.25721881341016 117.25721881341016 117.25721881341016 117.25721881341016 117.25721881341016 117.25721881341016 117.25721881341016 117.25721881341016 117.25721881341016 117.25721881341016 117.25721881341016 117.25721881341016 117.25721881341016 117.25721881341016 117.25721881341016 117.25721881341016 117.25721881341016 117.25721881341016 117.25721881341016
705_param_0 751.6569254162517 751.6569254162517 751.6569254162517 751.6569254162517 751.6569254162517 751.6569254162517 751.6569254162517 751.6569254162517 751.6569254162517 751.6569254162517 751.6569254162517 751.6569254162517 751.6569254162517 751.6569254162517 751.6569254162517 751.6569254162517 751.6569254162517 751.6569254162517 751.6569254162517 751.6569254162517 751.6569254162517 751.6569254162517 751.6569254162517 751.6569254162517 751.6569254162517 751.6569254162517 751.6569254162517 751.6569254162517 751.6569254162517 751.6569254162517 751.6569254162517 751.6569254162517 751.6569254162517 751.6569254162517 751.6569254162517 751.6569254162517 751.6569254162517 751.6569254162517 751.6569254162517 751.6569254162517 751.6569254162517 751.6569254162517 751.6569254162517 751.6569254162517 751.6569254162517 751.6569254162517 751.6569254162517 751.6569254162517 751.6569254162517 751.6569254162517 751.6569254162517 751.6569254162517 751.6569254162517 751.6569254162517 751.6569254162517 751.6569254162517 751.6569254162517 751.6569254162517 751.6569254162517 751.6569254162517 751.6569254162517 751.6569254162517 751.6569254162517 751.6569254162517 751.6569254162517 751.6569254162517 751.6569254162517 751.6569254162517 751.6569254162517 751.6569254162517 751.6569254162517 751.6569254162517 751.6569254162517 751.6569254162517 751.6569254162517 751.6569254162517 751.6569254162517 751.6569254162517 751.6569254162517 751.6569254162517 751.6569254162517 751.6569254162517 751.6569254162517 751.6569254162517 751.6569254162517 751.6569254162517 751.6569254162517 751.6569254162517 751.6569254162517 751.6569254162517 751.6569254162517 751.6569254162517 751.6569254162517 751.6569254162517 751.6569254162517 751.6569254162517 751.6569254162517 751.6569254162517 751.6569254162517 751.6569254162517 751.6569254162517 751.6569254162517 751.6569254162517 751.6569254162517 751.6569254162517 751.6569254162517 751.6569254162517 751.6569254162517 751.6569254162517 751.6569254162517 751.6569254162517 751.6569254162517 751.6569254162517 751.6569254162517 751.6569254162517 751.6569254162517 751.6569254162517 751.6569254162517 751.6569254162517 751.6569254162517 751.6569254162517 751.6569254162517 751.6569254162517 751.6569254162517 751.6569254162517 751.6569254162517 751.6569254162517 751.6569254162517 751.6569254162517 751.6569254162517 751.6569254162517 751.6569254162517 751.6569254162517 751.6569254162517 751.6569254162517 751.6569254162517 751.6569254162517 751.6569254162517 751.6569254162517 751.6569254162517 751.6569254162517 751.6569254162517 751.6569254162517 751.6569254162517 751.6569254162517 751.6569254162517 751.6569254162517 751.6569254162517 751.6569254162517 751.6569254162517 751.6569254162517 751.6569254162517 751.6569254162517 751.6569254162517 751.6569254162517 751.6569254162517 751.6569254162517 751.6569254162517 751.6569254162517 751.6569254162517 751.6569254162517 751.6569254162517 751.6569254162517 751.6569254162517 751.6569254162517 751.6569254162517 751.6569254162517 751.6569254162517 751.6569254162517 751.6569254162517 751.6569254162517 751.6569254162517 751.6569254162517 751.6569254162517 751.6569254162517 751.6569254162517 751.6569254162517 751.6569254162517 751.6569254162517 751.6569254162517 751.6569254162517 751.6569254162517 751.6569254162517 751.6569254162517 751.6569254162517 751.6569254162517 751.6569254162517 751.6569254162517 751.6569254162517 751.6569254162517 751.6569254162517 751.6569254162517 751.6569254162517 751.6569254162517 751.6569254162517 751.6569254162517 751.6569254162517 751.6569254162517 751.6569254162517 751.6569254162517 751.6569254162517 751.6569254162517 751.6569254162517 751.6569254162517 751.6569254162517 751.6569254162517 751.6569254162517 751.6569254162517 751.6569254162517 751.6569254162517 751.6569254162517 751.6569254162517 751.6569254162517 751.6569254162517 751.6569254162517 751.6569254162517 751.6569254162517 751.6569254162517 751.6569254162517 751.6569254162517 751.6569254162517 751.6569254162517 751.6569254162517 751.6569254162517 751.6569254162517 751.6569254162517 751.6569254162517 751.6569254162517 751.6569254162517 751.6569254162517 751.6569254162517 751.6569254162517 751.6569254162517 751.6569254162517 751.6569254162517 751.6569254162517 751.6569254162517 751.6569254162517 751.6569254162517 751.6569254162517 751.6569254162517 751.6569254162517 751.6569254162517 751.6569254162517 751.6569254162517 751.6569254162517 751.6569254162517 751.6569254162517 751.6569254162517 751.6569254162517 751.6569254162517 751.6569254162517 751.6569254162517 751.6569254162517 751.6569254162517 751.6569254162517 751.6569254162517 751.6569254162517 751.6569254162517 751.6569254162517 751.6569254162517 751.6569254162517 751.6569254162517 751.6569254162517 751.6569254162517 751.6569254162517 751.6569254162517 751.6569254162517 751.6569254162517 751.6569254162517 751.6569254162517 751.6569254162517 751.6569254162517 751.6569254162517 751.6569254162517 751.6569254162517 751.6569254162517 751.6569254162517 751.6569254162517 751.6569254162517 751.6569254162517 751.6569254162517 751.6569254162517 751.6569254162517 751.6569254162517 751.6569254162517 751.6569254162517 751.6569254162517 751.6569254162517 751.6569254162517 751.6569254162517 751.6569254162517 751.6569254162517 751.6569254162517 751.6569254162517 751.6569254162517 751.6569254162517 751.6569254162517 751.6569254162517 751.6569254162517 751.6569254162517 751.6569254162517 751.6569254162517 751.6569254162517 751.6569254162517 751.6569254162517 751.6569254162517 751.6569254162517 751.6569254162517 751.6569254162517 751.6569254162517 751.6569254162517 751.6569254162517 751.6569254162517 751.6569254162517 751.6569254162517 751.6569254162517 751.6569254162517 751.6569254162517 751.6569254162517 751.6569254162517 751.6569254162517 751.6569254162517 751.6569254162517 751.6569254162517 751.6569254162517 751.6569254162517 751.6569254162517 751.6569254162517 751.6569254162517 751.6569254162517 751.6569254162517 751.6569254162517 751.6569254162517 751.6569254162517 751.6569254162517 751.6569254162517 751.6569254162517 751.6569254162517 751.6569254162517 751.6569254162517 751.6569254162517 751.6569254162517 751.6569254162517 751.6569254162517 751.6569254162517 751.6569254162517 751.6569254162517 751.6569254162517 751.6569254162517 751.6569254162517 751.6569254162517 751.6569254162517 751.6569254162517 751.6569254162517 751.6569254162517 751.6569254162517 751.6569254162517 751.6569254162517 751.6569254162517 751.6569254162517 751.6569254162517 751.6569254162517 751.6569254162517 751.6569254162517 751.6569254162517 751.6569254162517 751.6569254162517 751.6569254162517 751.6569254162517 751.6569254162517 751.6569254162517 751.6569254162517 751.6569254162517 751.6569254162517 751.6569254162517 751.6569254162517 751.6569254162517 751.6569254162517 751.6569254162517 751.6569254162517 751.6569254162517 751.6569254162517 751.6569254162517
708_param_0 30.563280177252718 30.563280177252718 30.563280177252718 30.563280177252718 30.563280177252718 30.563280177252718 30.563280177252718 30.563280177252718 30.563280177252718 30.563280177252718 30.563280177252718 30.563280177252718 30.563280177252718 30.563280177252718 30.563280177252718 30.563280177252718 30.563280177252718 30.563280177252718 30.563280177252718 30.563280177252718 30.563280177252718 30.563280177252718 30.563280177252718 30.563280177252718 30.563280177252718 30.563280177252718 30.563280177252718 30.563280177252718 30.563280177252718 30.563280177252718 30.563280177252718 30.563280177252718 30.563280177252718 30.563280177252718 30.563280177252718 30.563280177252718 30.563280177252718 30.563280177252718 30.563280177252718 30.563280177252718 30.563280177252718 30.563280177252718 30.563280177252718 30.563280177252718 30.563280177252718 30.563280177252718 30.563280177252718 30.563280177252718 30.563280177252718 30.563280177252718 30.563280177252718 30.563280177252718 30.563280177252718 30.563280177252718 30.563280177252718 30.563280177252718 30.563280177252718 30.563280177252718 30.563280177252718 30.563280177252718 30.563280177252718 30.563280177252718 30.563280177252718 30.563280177252718 30.563280177252718 30.563280177252718 30.563280177252718 30.563280177252718 30.563280177252718 30.563280177252718 30.563280177252718 30.563280177252718 30.563280177252718 30.563280177252718 30.563280177252718 30.563280177252718 30.563280177252718 30.563280177252718 30.563280177252718 30.563280177252718 30.563280177252718 30.563280177252718 30.563280177252718 30.563280177252718 30.563280177252718 30.563280177252718 30.563280177252718 30.563280177252718 30.563280177252718 30.563280177252718 30.563280177252718 30.563280177252718 30.563280177252718 30.563280177252718 30.563280177252718 30.563280177252718 30.563280177252718 30.563280177252718 30.563280177252718 30.563280177252718 30.563280177252718 30.563280177252718 30.563280177252718 30.563280177252718 30.563280177252718 30.563280177252718 30.563280177252718 30.563280177252718 30.563280177252718 30.563280177252718 30.563280177252718 30.563280177252718 30.563280177252718 30.563280177252718 30.563280177252718 30.563280177252718 30.563280177252718 30.563280177252718 30.563280177252718 30.563280177252718 30.563280177252718 30.563280177252718 30.563280177252718 30.563280177252718 30.563280177252718 30.563280177252718 30.563280177252718 30.563280177252718 30.563280177252718 30.563280177252718 30.563280177252718 30.563280177252718 30.563280177252718 30.563280177252718 30.563280177252718 30.563280177252718 30.563280177252718 30.563280177252718 30.563280177252718 30.563280177252718 30.563280177252718 30.563280177252718 30.563280177252718 30.563280177252718 30.563280177252718 30.563280177252718 30.563280177252718 30.563280177252718 30.563280177252718 30.563280177252718 30.563280177252718 30.563280177252718 30.563280177252718 30.563280177252718 30.563280177252718 30.563280177252718 30.563280177252718 30.563280177252718 30.563280177252718 30.563280177252718 30.563280177252718 30.563280177252718 30.563280177252718 30.563280177252718 30.563280177252718 30.563280177252718 30.563280177252718 30.563280177252718 30.563280177252718 30.563280177252718 30.563280177252718 30.563280177252718 30.563280177252718 30.563280177252718 30.563280177252718 30.563280177252718 30.563280177252718 30.563280177252718 30.563280177252718 30.563280177252718 30.563280177252718 30.563280177252718 30.563280177252718 30.563280177252718 30.563280177252718 30.563280177252718 30.563280177252718 30.563280177252718 30.563280177252718 30.563280177252718 30.563280177252718 30.563280177252718 30.563280177252718 30.563280177252718 30.563280177252718 30.563280177252718 30.563280177252718 30.563280177252718 30.563280177252718 30.563280177252718 30.563280177252718 30.563280177252718 30.563280177252718 30.563280177252718 30.563280177252718 30.563280177252718 30.563280177252718 30.563280177252718 30.563280177252718 30.563280177252718 30.563280177252718 30.563280177252718 30.563280177252718 30.563280177252718 30.563280177252718 30.563280177252718 30.563280177252718 30.563280177252718 30.563280177252718 30.563280177252718 30.563280177252718 30.563280177252718 30.563280177252718 30.563280177252718 30.563280177252718 30.563280177252718 30.563280177252718 30.563280177252718 30.563280177252718 30.563280177252718 30.563280177252718 30.563280177252718 30.563280177252718 30.563280177252718 30.563280177252718 30.563280177252718 30.563280177252718 30.563280177252718 30.563280177252718 30.563280177252718 30.563280177252718 30.563280177252718 30.563280177252718 30.563280177252718 30.563280177252718 30.563280177252718 30.563280177252718 30.563280177252718 30.563280177252718 30.563280177252718 30.563280177252718 30.563280177252718 30.563280177252718 30.563280177252718 30.563280177252718 30.563280177252718 30.563280177252718 30.563280177252718 30.563280177252718 30.563280177252718 30.563280177252718 30.563280177252718 30.563280177252718 30.563280177252718 30.563280177252718 30.563280177252718 30.563280177252718 30.563280177252718 30.563280177252718 30.563280177252718 30.563280177252718 30.563280177252718 30.563280177252718 30.563280177252718 30.563280177252718 30.563280177252718 30.563280177252718 30.563280177252718 30.563280177252718 30.563280177252718 30.563280177252718 30.563280177252718 30.563280177252718 30.563280177252718 30.563280177252718 30.563280177252718 30.563280177252718 30.563280177252718 30.563280177252718 30.563280177252718 30.563280177252718 30.563280177252718 30.563280177252718 30.563280177252718 30.563280177252718 30.563280177252718 30.563280177252718 30.563280177252718 30.563280177252718 30.563280177252718 30.563280177252718 30.563280177252718 30.563280177252718 30.563280177252718 30.563280177252718 30.563280177252718 30.563280177252718 30.563280177252718 30.563280177252718 30.563280177252718 30.563280177252718 30.563280177252718 30.563280177252718 30.563280177252718 30.563280177252718 30.563280177252718 30.563280177252718 30.563280177252718 30.563280177252718 30.563280177252718 30.563280177252718 30.563280177252718 30.563280177252718 30.563280177252718 30.563280177252718 30.563280177252718 30.563280177252718 30.563280177252718 30.563280177252718 30.563280177252718 30.563280177252718 30.563280177252718 30.563280177252718 30.563280177252718 30.563280177252718 30.563280177252718 30.563280177252718 30.563280177252718 30.563280177252718 30.563280177252718 30.563280177252718 30.563280177252718 30.563280177252718 30.563280177252718 30.563280177252718 30.563280177252718 30.563280177252718 30.563280177252718 30.563280177252718 30.563280177252718 30.563280177252718 30.563280177252718 30.563280177252718 30.563280177252718 30.563280177252718 30.563280177252718 30.563280177252718 30.563280177252718 30.563280177252718 30.563280177252718 30.563280177252718 30.563280177252718 30.563280177252718 30.563280177252718 30.563280177252718 30.563280177252718 30.563280177252718 30.563280177252718 30.563280177252718 30.563280177252718 30.563280177252718 30.563280177252718 30.563280177252718 30.563280177252718 30.563280177252718 30.563280177252718 30.563280177252718 30.563280177252718 30.563280177252718 30.563280177252718 30.563280177252718 30.563280177252718 30.563280177252718 30.563280177252718
