619_param_0 163.08816594398505 163.08816594398505 163.08816594398505 163.08816594398505 163.08816594398505 163.08816594398505 163.08816594398505 163.08816594398505 163.08816594398505 163.08816594398505 163.08816594398505 163.08816594398505 163.08816594398505 163.08816594398505 163.08816594398505 163.08816594398505 163.08816594398505 163.08816594398505 163.08816594398505 163.08816594398505 163.08816594398505 163.08816594398505 163.08816594398505 163.08816594398505 163.08816594398505 163.08816594398505 163.08816594398505 163.08816594398505 163.08816594398505 163.08816594398505 163.08816594398505 163.08816594398505
622_param_0 163.08820310062083 163.08820310062083 163.08820310062083 163.08820310062083 163.08820310062083 163.08820310062083 163.08820310062083 163.08820310062083 163.08820310062083 163.08820310062083 163.08820310062083 163.08820310062083 163.08820310062083 163.08820310062083 163.08820310062083 163.08820310062083 163.08820310062083 163.08820310062083 163.08820310062083 163.08820310062083 163.08820310062083 163.08820310062083 163.08820310062083 163.08820310062083 163.08820310062083 163.08820310062083 163.08820310062083 163.08820310062083 163.08820310062083 163.08820310062083 163.08820310062083 163.08820310062083
625_param_0 163.08822787172076 163.08822787172076 163.08822787172076 163.08822787172076 163.08822787172076 163.08822787172076 163.08822787172076 163.08822787172076 163.08822787172076 163.08822787172076 163.08822787172076 163.08822787172076 163.08822787172076 163.08822787172076 163.08822787172076 163.08822787172076
627_param_0 163.08825264282822 163.08825264282822 163.08825264282822 163.08825264282822 163.08825264282822 163.08825264282822 163.08825264282822 163.08825264282822 163.08825264282822 163.08825264282822 163.08825264282822 163.08825264282822 163.08825264282822 163.08825264282822 163.08825264282822 163.08825264282822 163.08825264282822 163.08825264282822 163.08825264282822 163.08825264282822 163.08825264282822 163.08825264282822 163.08825264282822 163.08825264282822 163.08825264282822 163.08825264282822 163.08825264282822 163.08825264282822 163.08825264282822 163.08825264282822 163.08825264282822 163.08825264282822 163.08825264282822 163.08825264282822 163.08825264282822 163.08825264282822 163.08825264282822 163.08825264282822 163.08825264282822 163.08825264282822 163.08825264282822 163.08825264282822 163.08825264282822 163.08825264282822 163.08825264282822 163.08825264282822 163.08825264282822 163.08825264282822 163.08825264282822 163.08825264282822 163.08825264282822 163.08825264282822 163.08825264282822 163.08825264282822 163.08825264282822 163.08825264282822 163.08825264282822 163.08825264282822 163.08825264282822 163.08825264282822 163.08825264282822 163.08825264282822 163.08825264282822 163.08825264282822 163.08825264282822 163.08825264282822 163.08825264282822 163.08825264282822 163.08825264282822 163.08825264282822 163.08825264282822 163.08825264282822 163.08825264282822 163.08825264282822 163.08825264282822 163.08825264282822 163.08825264282822 163.08825264282822 163.08825264282822 163.08825264282822 163.08825264282822 163.08825264282822 163.08825264282822 163.08825264282822 163.08825264282822 163.08825264282822 163.08825264282822 163.08825264282822 163.08825264282822 163.08825264282822 163.08825264282822 163.08825264282822 163.08825264282822 163.08825264282822 163.08825264282822 163.08825264282822
630_param_0 163.08827741394322 163.08827741394322 163.08827741394322 163.08827741394322 163.08827741394322 163.08827741394322 163.08827741394322 163.08827741394322 163.08827741394322 163.08827741394322 163.08827741394322 163.08827741394322 163.08827741394322 163.08827741394322 163.08827741394322 163.08827741394322 163.08827741394322 163.08827741394322 163.08827741394322 163.08827741394322 163.08827741394322 163.08827741394322 163.08827741394322 163.08827741394322 163.08827741394322 163.08827741394322 163.08827741394322 163.08827741394322 163.08827741394322 163.08827741394322 163.08827741394322 163.08827741394322 163.08827741394322 163.08827741394322 163.08827741394322 163.08827741394322 163.08827741394322 163.08827741394322 163.08827741394322 163.08827741394322 163.08827741394322 163.08827741394322 163.08827741394322 163.08827741394322 163.08827741394322 163.08827741394322 163.08827741394322 163.08827741394322 163.08827741394322 163.08827741394322 163.08827741394322 163.08827741394322 163.08827741394322 163.08827741394322 163.08827741394322 163.08827741394322 163.08827741394322 163.08827741394322 163.08827741394322 163.08827741394322 163.08827741394322 163.08827741394322 163.08827741394322 163.08827741394322 163.08827741394322 163.08827741394322 163.08827741394322 163.08827741394322 163.08827741394322 163.08827741394322 163.08827741394322 163.08827741394322 163.08827741394322 163.08827741394322 163.08827741394322 163.08827741394322 163.08827741394322 163.08827741394322 163.08827741394322 163.08827741394322 163.08827741394322 163.08827741394322 163.08827741394322 163.08827741394322 163.08827741394322 163.08827741394322 163.08827741394322 163.08827741394322 163.08827741394322 163.08827741394322 163.08827741394322 163.08827741394322 163.08827741394322 163.08827741394322 163.08827741394322 163.08827741394322
633_param_0 163.08827741394322 163.08827741394322 163.08827741394322 163.08827741394322 163.08827741394322 163.08827741394322 163.08827741394322 163.08827741394322 163.08827741394322 163.08827741394322 163.08827741394322 163.08827741394322 163.08827741394322 163.08827741394322 163.08827741394322 163.08827741394322 163.08827741394322 163.08827741394322 163.08827741394322 163.08827741394322 163.08827741394322 163.08827741394322 163.08827741394322 163.08827741394322
635_param_0 140.65701493477755 140.65701493477755 140.65701493477755 140.65701493477755 140.65701493477755 140.65701493477755 140.65701493477755 140.65701493477755 140.65701493477755 140.65701493477755 140.65701493477755 140.65701493477755 140.65701493477755 140.65701493477755 140.65701493477755 140.65701493477755 140.65701493477755 140.65701493477755 140.65701493477755 140.65701493477755 140.65701493477755 140.65701493477755 140.65701493477755 140.65701493477755 140.65701493477755 140.65701493477755 140.65701493477755 140.65701493477755 140.65701493477755 140.65701493477755 140.65701493477755 140.65701493477755 140.65701493477755 140.65701493477755 140.65701493477755 140.65701493477755 140.65701493477755 140.65701493477755 140.65701493477755 140.65701493477755 140.65701493477755 140.65701493477755 140.65701493477755 140.65701493477755 140.65701493477755 140.65701493477755 140.65701493477755 140.65701493477755 140.65701493477755 140.65701493477755 140.65701493477755 140.65701493477755 140.65701493477755 140.65701493477755 140.65701493477755 140.65701493477755 140.65701493477755 140.65701493477755 140.65701493477755 140.65701493477755 140.65701493477755 140.65701493477755 140.65701493477755 140.65701493477755 140.65701493477755 140.65701493477755 140.65701493477755 140.65701493477755 140.65701493477755 140.65701493477755 140.65701493477755 140.65701493477755 140.65701493477755 140.65701493477755 140.65701493477755 140.65701493477755 140.65701493477755 140.65701493477755 140.65701493477755 140.65701493477755 140.65701493477755 140.65701493477755 140.65701493477755 140.65701493477755 140.65701493477755 140.65701493477755 140.65701493477755 140.65701493477755 140.65701493477755 140.65701493477755 140.65701493477755 140.65701493477755 140.65701493477755 140.65701493477755 140.65701493477755 140.65701493477755 140.65701493477755 140.65701493477755 140.65701493477755 140.65701493477755 140.65701493477755 140.65701493477755 140.65701493477755 140.65701493477755 140.65701493477755 140.65701493477755 140.65701493477755 140.65701493477755 140.65701493477755 140.65701493477755 140.65701493477755 140.65701493477755 140.65701493477755 140.65701493477755 140.65701493477755 140.65701493477755 140.65701493477755 140.65701493477755 140.65701493477755 140.65701493477755 140.65701493477755 140.65701493477755 140.65701493477755 140.65701493477755 140.65701493477755 140.65701493477755 140.65701493477755 140.65701493477755 140.65701493477755 140.65701493477755 140.65701493477755 140.65701493477755 140.65701493477755 140.65701493477755 140.65701493477755 140.65701493477755 140.65701493477755 140.65701493477755 140.65701493477755 140.65701493477755 140.65701493477755 140.65701493477755 140.65701493477755 140.65701493477755
638_param_0 140.6569965091255 140.6569965091255 140.6569965091255 140.6569965091255 140.6569965091255 140.6569965091255 140.6569965091255 140.6569965091255 140.6569965091255 140.6569965091255 140.6569965091255 140.6569965091255 140.6569965091255 140.6569965091255 140.6569965091255 140.6569965091255 140.6569965091255 140.6569965091255 140.6569965091255 140.6569965091255 140.6569965091255 140.6569965091255 140.6569965091255 140.6569965091255 140.6569965091255 140.6569965091255 140.6569965091255 140.6569965091255 140.6569965091255 140.6569965091255 140.6569965091255 140.6569965091255 140.6569965091255 140.6569965091255 140.6569965091255 140.6569965091255 140.6569965091255 140.6569965091255 140.6569965091255 140.6569965091255 140.6569965091255 140.6569965091255 140.6569965091255 140.6569965091255 140.6569965091255 140.6569965091255 140.6569965091255 140.6569965091255 140.6569965091255 140.6569965091255 140.6569965091255 140.6569965091255 140.6569965091255 140.6569965091255 140.6569965091255 140.6569965091255 140.6569965091255 140.6569965091255 140.6569965091255 140.6569965091255 140.6569965091255 140.6569965091255 140.6569965091255 140.6569965091255 140.6569965091255 140.6569965091255 140.6569965091255 140.6569965091255 140.6569965091255 140.6569965091255 140.6569965091255 140.6569965091255 140.6569965091255 140.6569965091255 140.6569965091255 140.6569965091255 140.6569965091255 140.6569965091255 140.6569965091255 140.6569965091255 140.6569965091255 140.6569965091255 140.6569965091255 140.6569965091255 140.6569965091255 140.6569965091255 140.6569965091255 140.6569965091255 140.6569965091255 140.6569965091255 140.6569965091255 140.6569965091255 140.6569965091255 140.6569965091255 140.6569965091255 140.6569965091255 140.6569965091255 140.6569965091255 140.6569965091255 140.6569965091255 140.6569965091255 140.6569965091255 140.6569965091255 140.6569965091255 140.6569965091255 140.6569965091255 140.6569965091255 140.6569965091255 140.6569965091255 140.6569965091255 140.6569965091255 140.6569965091255 140.6569965091255 140.6569965091255 140.6569965091255 140.6569965091255 140.6569965091255 140.6569965091255 140.6569965091255 140.6569965091255 140.6569965091255 140.6569965091255 140.6569965091255 140.6569965091255 140.6569965091255 140.6569965091255 140.6569965091255 140.6569965091255 140.6569965091255 140.6569965091255 140.6569965091255 140.6569965091255 140.6569965091255 140.6569965091255 140.6569965091255 140.6569965091255 140.6569965091255 140.6569965091255 140.6569965091255 140.6569965091255 140.6569965091255 140.6569965091255 140.6569965091255 140.6569965091255
641_param_0 140.65700572195092 140.65700572195092 140.65700572195092 140.65700572195092 140.65700572195092 140.65700572195092 140.65700572195092 140.65700572195092 140.65700572195092 140.65700572195092 140.65700572195092 140.65700572195092 140.65700572195092 140.65700572195092 140.65700572195092 140.65700572195092 140.65700572195092 140.65700572195092 140.65700572195092 140.65700572195092 140.65700572195092 140.65700572195092 140.65700572195092 140.65700572195092
644_param_0 254.74525494055345 254.74525494055345 254.74525494055345 254.74525494055345 254.74525494055345 254.74525494055345 254.74525494055345 254.74525494055345 254.74525494055345 254.74525494055345 254.74525494055345 254.74525494055345 254.74525494055345 254.74525494055345 254.74525494055345 254.74525494055345 254.74525494055345 254.74525494055345 254.74525494055345 254.74525494055345 254.74525494055345 254.74525494055345 254.74525494055345 254.74525494055345 254.74525494055345 254.74525494055345 254.74525494055345 254.74525494055345 254.74525494055345 254.74525494055345 254.74525494055345 254.74525494055345 254.74525494055345 254.74525494055345 254.74525494055345 254.74525494055345 254.74525494055345 254.74525494055345 254.74525494055345 254.74525494055345 254.74525494055345 254.74525494055345 254.74525494055345 254.74525494055345 254.74525494055345 254.74525494055345 254.74525494055345 254.74525494055345 254.74525494055345 254.74525494055345 254.74525494055345 254.74525494055345 254.74525494055345 254.74525494055345 254.74525494055345 254.74525494055345 254.74525494055345 254.74525494055345 254.74525494055345 254.74525494055345 254.74525494055345 254.74525494055345 254.74525494055345 254.74525494055345 254.74525494055345 254.74525494055345 254.74525494055345 254.74525494055345 254.74525494055345 254.74525494055345 254.74525494055345 254.74525494055345 254.74525494055345 254.74525494055345 254.74525494055345 254.74525494055345 254.74525494055345 254.74525494055345 254.74525494055345 254.74525494055345 254.74525494055345 254.74525494055345 254.74525494055345 254.74525494055345 254.74525494055345 254.74525494055345 254.74525494055345 254.74525494055345 254.74525494055345 254.74525494055345 254.74525494055345 254.74525494055345 254.74525494055345 254.74525494055345 254.74525494055345 254.74525494055345 254.74525494055345 254.74525494055345 254.74525494055345 254.74525494055345 254.74525494055345 254.74525494055345 254.74525494055345 254.74525494055345 254.74525494055345 254.74525494055345 254.74525494055345 254.74525494055345 254.74525494055345 254.74525494055345 254.74525494055345 254.74525494055345 254.74525494055345 254.74525494055345 254.74525494055345 254.74525494055345 254.74525494055345 254.74525494055345 254.74525494055345 254.74525494055345 254.74525494055345 254.74525494055345 254.74525494055345 254.74525494055345 254.74525494055345 254.74525494055345 254.74525494055345 254.74525494055345 254.74525494055345 254.74525494055345 254.74525494055345 254.74525494055345 254.74525494055345 254.74525494055345 254.74525494055345 254.74525494055345 254.74525494055345 254.74525494055345 254.74525494055345 254.74525494055345 254.74525494055345 254.74525494055345 254.74525494055345 254.74525494055345
647_param_0 254.74528515971375 254.74528515971375 254.74528515971375 254.74528515971375 254.74528515971375 254.74528515971375 254.74528515971375 254.74528515971375 254.74528515971375 254.74528515971375 254.74528515971375 254.74528515971375 254.74528515971375 254.74528515971375 254.74528515971375 254.74528515971375 254.74528515971375 254.74528515971375 254.74528515971375 254.74528515971375 254.74528515971375 254.74528515971375 254.74528515971375 254.74528515971375 254.74528515971375 254.74528515971375 254.74528515971375 254.74528515971375 254.74528515971375 254.74528515971375 254.74528515971375 254.74528515971375 254.74528515971375 254.74528515971375 254.74528515971375 254.74528515971375 254.74528515971375 254.74528515971375 254.74528515971375 254.74528515971375 254.74528515971375 254.74528515971375 254.74528515971375 254.74528515971375 254.74528515971375 254.74528515971375 254.74528515971375 254.74528515971375 254.74528515971375 254.74528515971375 254.74528515971375 254.74528515971375 254.74528515971375 254.74528515971375 254.74528515971375 254.74528515971375 254.74528515971375 254.74528515971375 254.74528515971375 254.74528515971375 254.74528515971375 254.74528515971375 254.74528515971375 254.74528515971375 254.74528515971375 254.74528515971375 254.74528515971375 254.74528515971375 254.74528515971375 254.74528515971375 254.74528515971375 254.74528515971375 254.74528515971375 254.74528515971375 254.74528515971375 254.74528515971375 254.74528515971375 254.74528515971375 254.74528515971375 254.74528515971375 254.74528515971375 254.74528515971375 254.74528515971375 254.74528515971375 254.74528515971375 254.74528515971375 254.74528515971375 254.74528515971375 254.74528515971375 254.74528515971375 254.74528515971375 254.74528515971375 254.74528515971375 254.74528515971375 254.74528515971375 254.74528515971375 254.74528515971375 254.74528515971375 254.74528515971375 254.74528515971375 254.74528515971375 254.74528515971375 254.74528515971375 254.74528515971375 254.74528515971375 254.74528515971375 254.74528515971375 254.74528515971375 254.74528515971375 254.74528515971375 254.74528515971375 254.74528515971375 254.74528515971375 254.74528515971375 254.74528515971375 254.74528515971375 254.74528515971375 254.74528515971375 254.74528515971375 254.74528515971375 254.74528515971375 254.74528515971375 254.74528515971375 254.74528515971375 254.74528515971375 254.74528515971375 254.74528515971375 254.74528515971375 254.74528515971375 254.74528515971375 254.74528515971375 254.74528515971375 254.74528515971375 254.74528515971375 254.74528515971375 254.74528515971375 254.74528515971375 254.74528515971375 254.74528515971375 254.74528515971375 254.74528515971375 254.74528515971375 254.74528515971375 254.74528515971375
650_param_0 254.74528515971375 254.74528515971375 254.74528515971375 254.74528515971375 254.74528515971375 254.74528515971375 254.74528515971375 254.74528515971375 254.74528515971375 254.74528515971375 254.74528515971375 254.74528515971375 254.74528515971375 254.74528515971375 254.74528515971375 254.74528515971375 254.74528515971375 254.74528515971375 254.74528515971375 254.74528515971375 254.74528515971375 254.74528515971375 254.74528515971375 254.74528515971375 254.74528515971375 254.74528515971375 254.74528515971375 254.74528515971375 254.74528515971375 254.74528515971375 254.74528515971375 254.74528515971375
652_param_0 206.46897937400053 206.46897937400053 206.46897937400053 206.46897937400053 206.46897937400053 206.46897937400053 206.46897937400053 206.46897937400053 206.46897937400053 206.46897937400053 206.46897937400053 206.46897937400053 206.46897937400053 206.46897937400053 206.46897937400053 206.46897937400053 206.46897937400053 206.46897937400053 206.46897937400053 206.46897937400053 206.46897937400053 206.46897937400053 206.46897937400053 206.46897937400053 206.46897937400053 206.46897937400053 206.46897937400053 206.46897937400053 206.46897937400053 206.46897937400053 206.46897937400053 206.46897937400053 206.46897937400053 206.46897937400053 206.46897937400053 206.46897937400053 206.46897937400053 206.46897937400053 206.46897937400053 206.46897937400053 206.46897937400053 206.46897937400053 206.46897937400053 206.46897937400053 206.46897937400053 206.46897937400053 206.46897937400053 206.46897937400053 206.46897937400053 206.46897937400053 206.46897937400053 206.46897937400053 206.46897937400053 206.46897937400053 206.46897937400053 206.46897937400053 206.46897937400053 206.46897937400053 206.46897937400053 206.46897937400053 206.46897937400053 206.46897937400053 206.46897937400053 206.46897937400053 206.46897937400053 206.46897937400053 206.46897937400053 206.46897937400053 206.46897937400053 206.46897937400053 206.46897937400053 206.46897937400053 206.46897937400053 206.46897937400053 206.46897937400053 206.46897937400053 206.46897937400053 206.46897937400053 206.46897937400053 206.46897937400053 206.46897937400053 206.46897937400053 206.46897937400053 206.46897937400053 206.46897937400053 206.46897937400053 206.46897937400053 206.46897937400053 206.46897937400053 206.46897937400053 206.46897937400053 206.46897937400053 206.46897937400053 206.46897937400053 206.46897937400053 206.46897937400053 206.46897937400053 206.46897937400053 206.46897937400053 206.46897937400053 206.46897937400053 206.46897937400053 206.46897937400053 206.46897937400053 206.46897937400053 206.46897937400053 206.46897937400053 206.46897937400053 206.46897937400053 206.46897937400053 206.46897937400053 206.46897937400053 206.46897937400053 206.46897937400053 206.46897937400053 206.46897937400053 206.46897937400053 206.46897937400053 206.46897937400053 206.46897937400053 206.46897937400053 206.46897937400053 206.46897937400053 206.46897937400053 206.46897937400053 206.46897937400053 206.46897937400053 206.46897937400053 206.46897937400053 206.46897937400053 206.46897937400053 206.46897937400053 206.46897937400053 206.46897937400053 206.46897937400053 206.46897937400053 206.46897937400053 206.46897937400053 206.46897937400053 206.46897937400053 206.46897937400053 206.46897937400053 206.46897937400053 206.46897937400053 206.46897937400053 206.46897937400053 206.46897937400053 206.46897937400053 206.46897937400053 206.46897937400053 206.46897937400053 206.46897937400053 206.46897937400053 206.46897937400053 206.46897937400053 206.46897937400053 206.46897937400053 206.46897937400053 206.46897937400053 206.46897937400053 206.46897937400053 206.46897937400053 206.46897937400053 206.46897937400053 206.46897937400053 206.46897937400053 206.46897937400053 206.46897937400053 206.46897937400053 206.46897937400053 206.46897937400053 206.46897937400053 206.46897937400053 206.46897937400053 206.46897937400053 206.46897937400053 206.46897937400053 206.46897937400053 206.46897937400053 206.46897937400053 206.46897937400053 206.46897937400053 206.46897937400053 206.46897937400053 206.46897937400053 206.46897937400053 206.46897937400053 206.46897937400053 206.46897937400053 206.46897937400053 206.46897937400053 206.46897937400053
655_param_0 206.46895952312278 206.46895952312278 206.46895952312278 206.46895952312278 206.46895952312278 206.46895952312278 206.46895952312278 206.46895952312278 206.46895952312278 206.46895952312278 206.46895952312278 206.46895952312278 206.46895952312278 206.46895952312278 206.46895952312278 206.46895952312278 206.46895952312278 206.46895952312278 206.46895952312278 206.46895952312278 206.46895952312278 206.46895952312278 206.46895952312278 206.46895952312278 206.46895952312278 206.46895952312278 206.46895952312278 206.46895952312278 206.46895952312278 206.46895952312278 206.46895952312278 206.46895952312278 206.46895952312278 206.46895952312278 206.46895952312278 206.46895952312278 206.46895952312278 206.46895952312278 206.46895952312278 206.46895952312278 206.46895952312278 206.46895952312278 206.46895952312278 206.46895952312278 206.46895952312278 206.46895952312278 206.46895952312278 206.46895952312278 206.46895952312278 206.46895952312278 206.46895952312278 206.46895952312278 206.46895952312278 206.46895952312278 206.46895952312278 206.46895952312278 206.46895952312278 206.46895952312278 206.46895952312278 206.46895952312278 206.46895952312278 206.46895952312278 206.46895952312278 206.46895952312278 206.46895952312278 206.46895952312278 206.46895952312278 206.46895952312278 206.46895952312278 206.46895952312278 206.46895952312278 206.46895952312278 206.46895952312278 206.46895952312278 206.46895952312278 206.46895952312278 206.46895952312278 206.46895952312278 206.46895952312278 206.46895952312278 206.46895952312278 206.46895952312278 206.46895952312278 206.46895952312278 206.46895952312278 206.46895952312278 206.46895952312278 206.46895952312278 206.46895952312278 206.46895952312278 206.46895952312278 206.46895952312278 206.46895952312278 206.46895952312278 206.46895952312278 206.46895952312278 206.46895952312278 206.46895952312278 206.46895952312278 206.46895952312278 206.46895952312278 206.46895952312278 206.46895952312278 206.46895952312278 206.46895952312278 206.46895952312278 206.46895952312278 206.46895952312278 206.46895952312278 206.46895952312278 206.46895952312278 206.46895952312278 206.46895952312278 206.46895952312278 206.46895952312278 206.46895952312278 206.46895952312278 206.46895952312278 206.46895952312278 206.46895952312278 206.46895952312278 206.46895952312278 206.46895952312278 206.46895952312278 206.46895952312278 206.46895952312278 206.46895952312278 206.46895952312278 206.46895952312278 206.46895952312278 206.46895952312278 206.46895952312278 206.46895952312278 206.46895952312278 206.46895952312278 206.46895952312278 206.46895952312278 206.46895952312278 206.46895952312278 206.46895952312278 206.46895952312278 206.46895952312278 206.46895952312278 206.46895952312278 206.46895952312278 206.46895952312278 206.46895952312278 206.46895952312278 206.46895952312278 206.46895952312278 206.46895952312278 206.46895952312278 206.46895952312278 206.46895952312278 206.46895952312278 206.46895952312278 206.46895952312278 206.46895952312278 206.46895952312278 206.46895952312278 206.46895952312278 206.46895952312278 206.46895952312278 206.46895952312278 206.46895952312278 206.46895952312278 206.46895952312278 206.46895952312278 206.46895952312278 206.46895952312278 206.46895952312278 206.46895952312278 206.46895952312278 206.46895952312278 206.46895952312278 206.46895952312278 206.46895952312278 206.46895952312278 206.46895952312278 206.46895952312278 206.46895952312278 206.46895952312278 206.46895952312278 206.46895952312278 206.46895952312278 206.46895952312278 206.46895952312278 206.46895952312278 206.46895952312278 206.46895952312278 206.46895952312278 206.46895952312278
658_param_0 206.46895952312278 206.46895952312278 206.46895952312278 206.46895952312278 206.46895952312278 206.46895952312278 206.46895952312278 206.46895952312278 206.46895952312278 206.46895952312278 206.46895952312278 206.46895952312278 206.46895952312278 206.46895952312278 206.46895952312278 206.46895952312278 206.46895952312278 206.46895952312278 206.46895952312278 206.46895952312278 206.46895952312278 206.46895952312278 206.46895952312278 206.46895952312278 206.46895952312278 206.46895952312278 206.46895952312278 206.46895952312278 206.46895952312278 206.46895952312278 206.46895952312278 206.46895952312278
661_param_0 218.63381565491125 218.63381565491125 218.63381565491125 218.63381565491125 218.63381565491125 218.63381565491125 218.63381565491125 218.63381565491125 218.63381565491125 218.63381565491125 218.63381565491125 218.63381565491125 218.63381565491125 218.63381565491125 218.63381565491125 218.63381565491125 218.63381565491125 218.63381565491125 218.63381565491125 218.63381565491125 218.63381565491125 218.63381565491125 218.63381565491125 218.63381565491125 218.63381565491125 218.63381565491125 218.63381565491125 218.63381565491125 218.63381565491125 218.63381565491125 218.63381565491125 218.63381565491125 218.63381565491125 218.63381565491125 218.63381565491125 218.63381565491125 218.63381565491125 218.63381565491125 218.63381565491125 218.63381565491125 218.63381565491125 218.63381565491125 218.63381565491125 218.63381565491125 218.63381565491125 218.63381565491125 218.63381565491125 218.63381565491125 218.63381565491125 218.63381565491125 218.63381565491125 218.63381565491125 218.63381565491125 218.63381565491125 218.63381565491125 218.63381565491125 218.63381565491125 218.63381565491125 218.63381565491125 218.63381565491125 218.63381565491125 218.63381565491125 218.63381565491125 218.63381565491125 218.63381565491125 218.63381565491125 218.63381565491125 218.63381565491125 218.63381565491125 218.63381565491125 218.63381565491125 218.63381565491125 218.63381565491125 218.63381565491125 218.63381565491125 218.63381565491125 218.63381565491125 218.63381565491125 218.63381565491125 218.63381565491125 218.63381565491125 218.63381565491125 218.63381565491125 218.63381565491125 218.63381565491125 218.63381565491125 218.63381565491125 218.63381565491125 218.63381565491125 218.63381565491125 218.63381565491125 218.63381565491125 218.63381565491125 218.63381565491125 218.63381565491125 218.63381565491125 218.63381565491125 218.63381565491125 218.63381565491125 218.63381565491125 218.63381565491125 218.63381565491125 218.63381565491125 218.63381565491125 218.63381565491125 218.63381565491125 218.63381565491125 218.63381565491125 218.63381565491125 218.63381565491125 218.63381565491125 218.63381565491125 218.63381565491125 218.63381565491125 218.63381565491125 218.63381565491125 218.63381565491125 218.63381565491125 218.63381565491125 218.63381565491125 218.63381565491125 218.63381565491125 218.63381565491125 218.63381565491125 218.63381565491125 218.63381565491125 218.63381565491125 218.63381565491125 218.63381565491125 218.63381565491125 218.63381565491125 218.63381565491125 218.63381565491125 218.63381565491125 218.63381565491125 218.63381565491125 218.63381565491125 218.63381565491125 218.63381565491125 218.63381565491125 218.63381565491125 218.63381565491125 218.63381565491125 218.63381565491125 218.63381565491125 218.63381565491125 218.63381565491125 218.63381565491125 218.63381565491125 218.63381565491125 218.63381565491125 218.63381565491125 218.63381565491125 218.63381565491125 218.63381565491125 218.63381565491125 218.63381565491125 218.63381565491125 218.63381565491125 218.63381565491125 218.63381565491125 218.63381565491125 218.63381565491125 218.63381565491125 218.63381565491125 218.63381565491125 218.63381565491125 218.63381565491125 218.63381565491125 218.63381565491125 218.63381565491125 218.63381565491125 218.63381565491125 218.63381565491125 218.63381565491125 218.63381565491125 218.63381565491125 218.63381565491125 218.63381565491125 218.63381565491125 218.63381565491125 218.63381565491125 218.63381565491125 218.63381565491125 218.63381565491125 218.63381565491125 218.63381565491125 218.63381565491125 218.63381565491125 218.63381565491125 218.63381565491125 218.63381565491125
664_param_0 218.63381565491125 218.63381565491125 218.63381565491125 218.63381565491125 218.63381565491125 218.63381565491125 218.63381565491125 218.63381565491125 218.63381565491125 218.63381565491125 218.63381565491125 218.63381565491125 218.63381565491125 218.63381565491125 218.63381565491125 218.63381565491125 218.63381565491125 218.63381565491125 218.63381565491125 218.63381565491125 218.63381565491125 218.63381565491125 218.63381565491125 218.63381565491125 218.63381565491125 218.63381565491125 218.63381565491125 218.63381565491125 218.63381565491125 218.63381565491125 218.63381565491125 218.63381565491125 218.63381565491125 218.63381565491125 218.63381565491125 218.63381565491125 218.63381565491125 218.63381565491125 218.63381565491125 218.63381565491125 218.63381565491125 218.63381565491125 218.63381565491125 218.63381565491125 218.63381565491125 218.63381565491125 218.63381565491125 218.63381565491125 218.63381565491125 218.63381565491125 218.63381565491125 218.63381565491125 218.63381565491125 218.63381565491125 218.63381565491125 218.63381565491125 218.63381565491125 218.63381565491125 218.63381565491125 218.63381565491125 218.63381565491125 218.63381565491125 218.63381565491125 218.63381565491125 218.63381565491125 218.63381565491125 218.63381565491125 218.63381565491125 218.63381565491125 218.63381565491125 218.63381565491125 218.63381565491125 218.63381565491125 218.63381565491125 218.63381565491125 218.63381565491125 218.63381565491125 218.63381565491125 218.63381565491125 218.63381565491125 218.63381565491125 218.63381565491125 218.63381565491125 218.63381565491125 218.63381565491125 218.63381565491125 218.63381565491125 218.63381565491125 218.63381565491125 218.63381565491125 218.63381565491125 218.63381565491125 218.63381565491125 218.63381565491125 218.63381565491125 218.63381565491125 218.63381565491125 218.63381565491125 218.63381565491125 218.63381565491125 218.63381565491125 218.63381565491125 218.63381565491125 218.63381565491125 218.63381565491125 218.63381565491125 218.63381565491125 218.63381565491125 218.63381565491125 218.63381565491125 218.63381565491125 218.63381565491125 218.63381565491125 218.63381565491125 218.63381565491125 218.63381565491125 218.63381565491125 218.63381565491125 218.63381565491125 218.63381565491125 218.63381565491125 218.63381565491125 218.63381565491125 218.63381565491125 218.63381565491125 218.63381565491125 218.63381565491125 218.63381565491125 218.63381565491125 218.63381565491125 218.63381565491125 218.63381565491125 218.63381565491125 218.63381565491125 218.63381565491125 218.63381565491125 218.63381565491125 218.63381565491125 218.63381565491125 218.63381565491125 218.63381565491125 218.63381565491125 218.63381565491125 218.63381565491125 218.63381565491125 218.63381565491125 218.63381565491125 218.63381565491125 218.63381565491125 218.63381565491125 218.63381565491125 218.63381565491125 218.63381565491125 218.63381565491125 218.63381565491125 218.63381565491125 218.63381565491125 218.63381565491125 218.63381565491125 218.63381565491125 218.63381565491125 218.63381565491125 218.63381565491125 218.63381565491125 218.63381565491125 218.63381565491125 218.63381565491125 218.63381565491125 218.63381565491125 218.63381565491125 218.63381565491125 218.63381565491125 218.63381565491125 218.63381565491125 218.63381565491125 218.63381565491125 218.63381565491125 218.63381565491125 218.63381565491125 218.63381565491125 218.63381565491125 218.63381565491125 218.63381565491125 218.63381565491125 218.63381565491125 218.63381565491125 218.63381565491125 218.63381565491125 218.63381565491125 218.63381565491125 218.63381565491125 218.63381565491125
667_param_0 218.6337933959569 218.6337933959569 218.6337933959569 218.6337933959569 218.6337933959569 218.6337933959569 218.6337933959569 218.6337933959569 218.6337933959569 218.6337933959569 218.6337933959569 218.6337933959569 218.6337933959569 218.6337933959569 218.6337933959569 218.6337933959569 218.6337933959569 218.6337933959569 218.6337933959569 218.6337933959569 218.6337933959569 218.6337933959569 218.6337933959569 218.6337933959569 218.6337933959569 218.6337933959569 218.6337933959569 218.6337933959569 218.6337933959569 218.6337933959569 218.6337933959569 218.6337933959569
670_param_0 306.30171883284964 306.30171883284964 306.30171883284964 306.30171883284964 306.30171883284964 306.30171883284964 306.30171883284964 306.30171883284964 306.30171883284964 306.30171883284964 306.30171883284964 306.30171883284964 306.30171883284964 306.30171883284964 306.30171883284964 306.30171883284964 306.30171883284964 306.30171883284964 306.30171883284964 306.30171883284964 306.30171883284964 306.30171883284964 306.30171883284964 306.30171883284964 306.30171883284964 306.30171883284964 306.30171883284964 306.30171883284964 306.30171883284964 306.30171883284964 306.30171883284964 306.30171883284964 306.30171883284964 306.30171883284964 306.30171883284964 306.30171883284964 306.30171883284964 306.30171883284964 306.30171883284964 306.30171883284964 306.30171883284964 306.30171883284964 306.30171883284964 306.30171883284964 306.30171883284964 306.30171883284964 306.30171883284964 306.30171883284964 306.30171883284964 306.30171883284964 306.30171883284964 306.30171883284964 306.30171883284964 306.30171883284964 306.30171883284964 306.30171883284964 306.30171883284964 306.30171883284964 306.30171883284964 306.30171883284964 306.30171883284964 306.30171883284964 306.30171883284964 306.30171883284964 306.30171883284964 306.30171883284964 306.30171883284964 306.30171883284964 306.30171883284964 306.30171883284964 306.30171883284964 306.30171883284964 306.30171883284964 306.30171883284964 306.30171883284964 306.30171883284964 306.30171883284964 306.30171883284964 306.30171883284964 306.30171883284964 306.30171883284964 306.30171883284964 306.30171883284964 306.30171883284964 306.30171883284964 306.30171883284964 306.30171883284964 306.30171883284964 306.30171883284964 306.30171883284964 306.30171883284964 306.30171883284964 306.30171883284964 306.30171883284964 306.30171883284964 306.30171883284964 306.30171883284964 306.30171883284964 306.30171883284964 306.30171883284964 306.30171883284964 306.30171883284964 306.30171883284964 306.30171883284964 306.30171883284964 306.30171883284964 306.30171883284964 306.30171883284964 306.30171883284964 306.30171883284964 306.30171883284964 306.30171883284964 306.30171883284964 306.30171883284964 306.30171883284964 306.30171883284964 306.30171883284964 306.30171883284964 306.30171883284964 306.30171883284964 306.30171883284964 306.30171883284964 306.30171883284964 306.30171883284964 306.30171883284964 306.30171883284964 306.30171883284964 306.30171883284964 306.30171883284964 306.30171883284964 306.30171883284964 306.30171883284964 306.30171883284964 306.30171883284964 306.30171883284964 306.30171883284964 306.30171883284964 306.30171883284964 306.30171883284964 306.30171883284964 306.30171883284964 306.30171883284964 306.30171883284964 306.30171883284964 306.30171883284964 306.30171883284964 306.30171883284964 306.30171883284964 306.30171883284964 306.30171883284964 306.30171883284964 306.30171883284964 306.30171883284964 306.30171883284964 306.30171883284964 306.30171883284964 306.30171883284964 306.30171883284964 306.30171883284964 306.30171883284964 306.30171883284964 306.30171883284964 306.30171883284964 306.30171883284964 306.30171883284964 306.30171883284964 306.30171883284964 306.30171883284964 306.30171883284964 306.30171883284964 306.30171883284964 306.30171883284964 306.30171883284964 306.30171883284964 306.30171883284964 306.30171883284964 306.30171883284964 306.30171883284964 306.30171883284964 306.30171883284964 306.30171883284964 306.30171883284964 306.30171883284964 306.30171883284964 306.30171883284964 306.30171883284964 306.30171883284964 306.30171883284964 306.30171883284964 306.30171883284964 306.30171883284964 306.30171883284964
673_param_0 306.30174067719514 306.30174067719514 306.30174067719514 306.30174067719514 306.30174067719514 306.30174067719514 306.30174067719514 306.30174067719514 306.30174067719514 306.30174067719514 306.30174067719514 306.30174067719514 306.30174067719514 306.30174067719514 306.30174067719514 306.30174067719514 306.30174067719514 306.30174067719514 306.30174067719514 306.30174067719514 306.30174067719514 306.30174067719514 306.30174067719514 306.30174067719514 306.30174067719514 306.30174067719514 306.30174067719514 306.30174067719514 306.30174067719514 306.30174067719514 306.30174067719514 306.30174067719514 306.30174067719514 306.30174067719514 306.30174067719514 306.30174067719514 306.30174067719514 306.30174067719514 306.30174067719514 306.30174067719514 306.30174067719514 306.30174067719514 306.30174067719514 306.30174067719514 306.30174067719514 306.30174067719514 306.30174067719514 306.30174067719514 306.30174067719514 306.30174067719514 306.30174067719514 306.30174067719514 306.30174067719514 306.30174067719514 306.30174067719514 306.30174067719514 306.30174067719514 306.30174067719514 306.30174067719514 306.30174067719514 306.30174067719514 306.30174067719514 306.30174067719514 306.30174067719514 306.30174067719514 306.30174067719514 306.30174067719514 306.30174067719514 306.30174067719514 306.30174067719514 306.30174067719514 306.30174067719514 306.30174067719514 306.30174067719514 306.30174067719514 306.30174067719514 306.30174067719514 306.30174067719514 306.30174067719514 306.30174067719514 306.30174067719514 306.30174067719514 306.30174067719514 306.30174067719514 306.30174067719514 306.30174067719514 306.30174067719514 306.30174067719514 306.30174067719514 306.30174067719514 306.30174067719514 306.30174067719514 306.30174067719514 306.30174067719514 306.30174067719514 306.30174067719514 306.30174067719514 306.30174067719514 306.30174067719514 306.30174067719514 306.30174067719514 306.30174067719514 306.30174067719514 306.30174067719514 306.30174067719514 306.30174067719514 306.30174067719514 306.30174067719514 306.30174067719514 306.30174067719514 306.30174067719514 306.30174067719514 306.30174067719514 306.30174067719514 306.30174067719514 306.30174067719514 306.30174067719514 306.30174067719514 306.30174067719514 306.30174067719514 306.30174067719514 306.30174067719514 306.30174067719514 306.30174067719514 306.30174067719514 306.30174067719514 306.30174067719514 306.30174067719514 306.30174067719514 306.30174067719514 306.30174067719514 306.30174067719514 306.30174067719514 306.30174067719514 306.30174067719514 306.30174067719514 306.30174067719514 306.30174067719514 306.30174067719514 306.30174067719514 306.30174067719514 306.30174067719514 306.30174067719514 306.30174067719514 306.30174067719514 306.30174067719514 306.30174067719514 306.30174067719514 306.30174067719514 306.30174067719514 306.30174067719514 306.30174067719514 306.30174067719514 306.30174067719514 306.30174067719514 306.30174067719514 306.30174067719514 306.30174067719514 306.30174067719514 306.30174067719514 306.30174067719514 306.30174067719514 306.30174067719514 306.30174067719514 306.30174067719514 306.30174067719514 306.30174067719514 306.30174067719514 306.30174067719514 306.30174067719514 306.30174067719514 306.30174067719514 306.30174067719514 306.30174067719514 306.30174067719514 306.30174067719514 306.30174067719514 306.30174067719514 306.30174067719514 306.30174067719514 306.30174067719514 306.30174067719514 306.30174067719514 306.30174067719514 306.30174067719514 306.30174067719514 306.30174067719514 306.30174067719514 306.30174067719514 306.30174067719514 306.30174067719514 306.30174067719514
676_param_0 306.30171883284964 306.30171883284964 306.30171883284964 306.30171883284964 306.30171883284964 306.30171883284964 306.30171883284964 306.30171883284964 306.30171883284964 306.30171883284964 306.30171883284964 306.30171883284964 306.30171883284964 306.30171883284964 306.30171883284964 306.30171883284964 306.30171883284964 306.30171883284964 306.30171883284964 306.30171883284964 306.30171883284964 306.30171883284964 306.30171883284964 306.30171883284964 306.30171883284964 306.30171883284964 306.30171883284964 306.30171883284964 306.30171883284964 306.30171883284964 306.30171883284964 306.30171883284964 306.30171883284964 306.30171883284964 306.30171883284964 306.30171883284964 306.30171883284964 306.30171883284964 306.30171883284964 306.30171883284964 306.30171883284964 306.30171883284964 306.30171883284964 306.30171883284964 306.30171883284964 306.30171883284964 306.30171883284964 306.30171883284964 306.30171883284964 306.30171883284964 306.30171883284964 306.30171883284964 306.30171883284964 306.30171883284964 306.30171883284964 306.30171883284964 306.30171883284964 306.30171883284964 306.30171883284964 306.30171883284964 306.30171883284964 306.30171883284964 306.30171883284964 306.30171883284964
678_param_0 267.1438488836288 267.1438488836288 267.1438488836288 267.1438488836288 267.1438488836288 267.1438488836288 267.1438488836288 267.1438488836288 267.1438488836288 267.1438488836288 267.1438488836288 267.1438488836288 267.1438488836288 267.1438488836288 267.1438488836288 267.1438488836288 267.1438488836288 267.1438488836288 267.1438488836288 267.1438488836288 267.1438488836288 267.1438488836288 267.1438488836288 267.1438488836288 267.1438488836288 267.1438488836288 267.1438488836288 267.1438488836288 267.1438488836288 267.1438488836288 267.1438488836288 267.1438488836288 267.1438488836288 267.1438488836288 267.1438488836288 267.1438488836288 267.1438488836288 267.1438488836288 267.1438488836288 267.1438488836288 267.1438488836288 267.1438488836288 267.1438488836288 267.1438488836288 267.1438488836288 267.1438488836288 267.1438488836288 267.1438488836288 267.1438488836288 267.1438488836288 267.1438488836288 267.1438488836288 267.1438488836288 267.1438488836288 267.1438488836288 267.1438488836288 267.1438488836288 267.1438488836288 267.1438488836288 267.1438488836288 267.1438488836288 267.1438488836288 267.1438488836288 267.1438488836288 267.1438488836288 267.1438488836288 267.1438488836288 267.1438488836288 267.1438488836288 267.1438488836288 267.1438488836288 267.1438488836288 267.1438488836288 267.1438488836288 267.1438488836288 267.1438488836288 267.1438488836288 267.1438488836288 267.1438488836288 267.1438488836288 267.1438488836288 267.1438488836288 267.1438488836288 267.1438488836288 267.1438488836288 267.1438488836288 267.1438488836288 267.1438488836288 267.1438488836288 267.1438488836288 267.1438488836288 267.1438488836288 267.1438488836288 267.1438488836288 267.1438488836288 267.1438488836288 267.1438488836288 267.1438488836288 267.1438488836288 267.1438488836288 267.1438488836288 267.1438488836288 267.1438488836288 267.1438488836288 267.1438488836288 267.1438488836288 267.1438488836288 267.1438488836288 267.1438488836288 267.1438488836288 267.1438488836288 267.1438488836288 267.1438488836288 267.1438488836288 267.1438488836288 267.1438488836288 267.1438488836288 267.1438488836288 267.1438488836288 267.1438488836288 267.1438488836288 267.1438488836288 267.1438488836288 267.1438488836288 267.1438488836288 267.1438488836288 267.1438488836288 267.1438488836288 267.1438488836288 267.1438488836288 267.1438488836288 267.1438488836288 267.1438488836288 267.1438488836288 267.1438488836288 267.1438488836288 267.1438488836288 267.1438488836288 267.1438488836288 267.1438488836288 267.1438488836288 267.1438488836288 267.1438488836288 267.1438488836288 267.1438488836288 267.1438488836288 267.1438488836288 267.1438488836288 267.1438488836288 267.1438488836288 267.1438488836288 267.1438488836288 267.1438488836288 267.1438488836288 267.1438488836288 267.1438488836288 267.1438488836288 267.1438488836288 267.1438488836288 267.1438488836288 267.1438488836288 267.1438488836288 267.1438488836288 267.1438488836288 267.1438488836288 267.1438488836288 267.1438488836288 267.1438488836288 267.1438488836288 267.1438488836288 267.1438488836288 267.1438488836288 267.1438488836288 267.1438488836288 267.1438488836288 267.1438488836288 267.1438488836288 267.1438488836288 267.1438488836288 267.1438488836288 267.1438488836288 267.1438488836288 267.1438488836288 267.1438488836288 267.1438488836288 267.1438488836288 267.1438488836288 267.1438488836288 267.1438488836288 267.1438488836288 267.1438488836288 267.1438488836288 267.1438488836288 267.1438488836288 267.1438488836288 267.1438488836288 267.1438488836288 267.1438488836288 267.1438488836288 267.1438488836288 267.1438488836288 267.1438488836288 267.1438488836288 267.1438488836288 267.1438488836288 267.1438488836288 267.1438488836288 267.1438488836288 267.1438488836288 267.1438488836288 267.1438488836288 267.1438488836288 267.1438488836288 267.1438488836288 267.1438488836288 267.1438488836288 267.1438488836288 267.1438488836288 267.1438488836288 267.1438488836288 267.1438488836288 267.1438488836288 267.1438488836288 267.1438488836288 267.1438488836288 267.1438488836288 267.1438488836288 267.1438488836288 267.1438488836288 267.1438488836288 267.1438488836288 267.1438488836288 267.1438488836288 267.1438488836288 267.1438488836288 267.1438488836288 267.1438488836288 267.1438488836288 267.1438488836288 267.1438488836288 267.1438488836288 267.1438488836288 267.1438488836288 267.1438488836288 267.1438488836288 267.1438488836288 267.1438488836288 267.1438488836288 267.1438488836288 267.1438488836288 267.1438488836288 267.1438488836288 267.1438488836288 267.1438488836288 267.1438488836288 267.1438488836288 267.1438488836288 267.1438488836288 267.1438488836288 267.1438488836288 267.1438488836288 267.1438488836288 267.1438488836288 267.1438488836288 267.1438488836288 267.1438488836288 267.1438488836288 267.1438488836288 267.1438488836288 267.1438488836288 267.1438488836288 267.1438488836288 267.1438488836288 267.1438488836288 267.1438488836288 267.1438488836288 267.1438488836288 267.1438488836288 267.1438488836288 267.1438488836288 267.1438488836288 267.1438488836288 267.1438488836288 267.1438488836288 267.1438488836288 267.1438488836288 267.1438488836288 267.1438488836288 267.1438488836288 267.1438488836288 267.1438488836288 267.1438488836288 267.1438488836288 267.1438488836288 267.1438488836288 267.1438488836288 267.1438488836288 267.1438488836288 267.1438488836288 267.1438488836288 267.1438488836288 267.1438488836288 267.1438488836288 267.1438488836288 267.1438488836288 267.1438488836288 267.1438488836288 267.1438488836288 267.1438488836288 267.1438488836288 267.1438488836288 267.1438488836288 267.1438488836288 267.1438488836288 267.1438488836288 267.1438488836288 267.1438488836288 267.1438488836288 267.1438488836288 267.1438488836288 267.1438488836288 267.1438488836288 267.1438488836288 267.1438488836288 267.1438488836288 267.1438488836288 267.1438488836288 267.1438488836288 267.1438488836288 267.1438488836288 267.1438488836288 267.1438488836288 267.1438488836288 267.1438488836288 267.1438488836288 267.1438488836288 267.1438488836288 267.1438488836288 267.1438488836288 267.1438488836288 267.1438488836288 267.1438488836288 267.1438488836288 267.1438488836288 267.1438488836288 267.1438488836288 267.1438488836288 267.1438488836288 267.1438488836288 267.1438488836288 267.1438488836288 267.1438488836288 267.1438488836288 267.1438488836288 267.1438488836288 267.1438488836288 267.1438488836288 267.1438488836288 267.1438488836288 267.1438488836288 267.1438488836288 267.1438488836288 267.1438488836288 267.1438488836288 267.1438488836288 267.1438488836288 267.1438488836288 267.1438488836288 267.1438488836288 267.1438488836288 267.1438488836288 267.1438488836288 267.1438488836288 267.1438488836288 267.1438488836288 267.1438488836288 267.1438488836288 267.1438488836288 267.1438488836288 267.1438488836288 267.1438488836288 267.1438488836288 267.1438488836288 267.1438488836288
681_param_0 267.1438322674763 267.1438322674763 267.1438322674763 267.1438322674763 267.1438322674763 267.1438322674763 267.1438322674763 267.1438322674763 267.1438322674763 267.1438322674763 267.1438322674763 267.1438322674763 267.1438322674763 267.1438322674763 267.1438322674763 267.1438322674763 267.1438322674763 267.1438322674763 267.1438322674763 267.1438322674763 267.1438322674763 267.1438322674763 267.1438322674763 267.1438322674763 267.1438322674763 267.1438322674763 267.1438322674763 267.1438322674763 267.1438322674763 267.1438322674763 267.1438322674763 267.1438322674763 267.1438322674763 267.1438322674763 267.1438322674763 267.1438322674763 267.1438322674763 267.1438322674763 267.1438322674763 267.1438322674763 267.1438322674763 267.1438322674763 267.1438322674763 267.1438322674763 267.1438322674763 267.1438322674763 267.1438322674763 267.1438322674763 267.1438322674763 267.1438322674763 267.1438322674763 267.1438322674763 267.1438322674763 267.1438322674763 267.1438322674763 267.1438322674763 267.1438322674763 267.1438322674763 267.1438322674763 267.1438322674763 267.1438322674763 267.1438322674763 267.1438322674763 267.1438322674763 267.1438322674763 267.1438322674763 267.1438322674763 267.1438322674763 267.1438322674763 267.1438322674763 267.1438322674763 267.1438322674763 267.1438322674763 267.1438322674763 267.1438322674763 267.1438322674763 267.1438322674763 267.1438322674763 267.1438322674763 267.1438322674763 267.1438322674763 267.1438322674763 267.1438322674763 267.1438322674763 267.1438322674763 267.1438322674763 267.1438322674763 267.1438322674763 267.1438322674763 267.1438322674763 267.1438322674763 267.1438322674763 267.1438322674763 267.1438322674763 267.1438322674763 267.1438322674763 267.1438322674763 267.1438322674763 267.1438322674763 267.1438322674763 267.1438322674763 267.1438322674763 267.1438322674763 267.1438322674763 267.1438322674763 267.1438322674763 267.1438322674763 267.1438322674763 267.1438322674763 267.1438322674763 267.1438322674763 267.1438322674763 267.1438322674763 267.1438322674763 267.1438322674763 267.1438322674763 267.1438322674763 267.1438322674763 267.1438322674763 267.1438322674763 267.1438322674763 267.1438322674763 267.1438322674763 267.1438322674763 267.1438322674763 267.1438322674763 267.1438322674763 267.1438322674763 267.1438322674763 267.1438322674763 267.1438322674763 267.1438322674763 267.1438322674763 267.1438322674763 267.1438322674763 267.1438322674763 267.1438322674763 267.1438322674763 267.1438322674763 267.1438322674763 267.1438322674763 267.1438322674763 267.1438322674763 267.1438322674763 267.1438322674763 267.1438322674763 267.1438322674763 267.1438322674763 267.1438322674763 267.1438322674763 267.1438322674763 267.1438322674763 267.1438322674763 267.1438322674763 267.1438322674763 267.1438322674763 267.1438322674763 267.1438322674763 267.1438322674763 267.1438322674763 267.1438322674763 267.1438322674763 267.1438322674763 267.1438322674763 267.1438322674763 267.1438322674763 267.1438322674763 267.1438322674763 267.1438322674763 267.1438322674763 267.1438322674763 267.1438322674763 267.1438322674763 267.1438322674763 267.1438322674763 267.1438322674763 267.1438322674763 267.1438322674763 267.1438322674763 267.1438322674763 267.1438322674763 267.1438322674763 267.1438322674763 267.1438322674763 267.1438322674763 267.1438322674763 267.1438322674763 267.1438322674763 267.1438322674763 267.1438322674763 267.1438322674763 267.1438322674763 267.1438322674763 267.1438322674763 267.1438322674763 267.1438322674763 267.1438322674763 267.1438322674763 267.1438322674763 267.1438322674763 267.1438322674763 267.1438322674763 267.1438322674763 267.1438322674763 267.1438322674763 267.1438322674763 267.1438322674763 267.1438322674763 267.1438322674763 267.1438322674763 267.1438322674763 267.1438322674763 267.1438322674763 267.1438322674763 267.1438322674763 267.1438322674763 267.1438322674763 267.1438322674763 267.1438322674763 267.1438322674763 267.1438322674763 267.1438322674763 267.1438322674763 267.1438322674763 267.1438322674763 267.1438322674763 267.1438322674763 267.1438322674763 267.1438322674763 267.1438322674763 267.1438322674763 267.1438322674763 267.1438322674763 267.1438322674763 267.1438322674763 267.1438322674763 267.1438322674763 267.1438322674763 267.1438322674763 267.1438322674763 267.1438322674763 267.1438322674763 267.1438322674763 267.1438322674763 267.1438322674763 267.1438322674763 267.1438322674763 267.1438322674763 267.1438322674763 267.1438322674763 267.1438322674763 267.1438322674763 267.1438322674763 267.1438322674763 267.1438322674763 267.1438322674763 267.1438322674763 267.1438322674763 267.1438322674763 267.1438322674763 267.1438322674763 267.1438322674763 267.1438322674763 267.1438322674763 267.1438322674763 267.1438322674763 267.1438322674763 267.1438322674763 267.1438322674763 267.1438322674763 267.1438322674763 267.1438322674763 267.1438322674763 267.1438322674763 267.1438322674763 267.1438322674763 267.1438322674763 267.1438322674763 267.1438322674763 267.1438322674763 267.1438322674763 267.1438322674763 267.1438322674763 267.1438322674763 267.1438322674763 267.1438322674763 267.1438322674763 267.1438322674763 267.1438322674763 267.1438322674763 267.1438322674763 267.1438322674763 267.1438322674763 267.1438322674763 267.1438322674763 267.1438322674763 267.1438322674763 267.1438322674763 267.1438322674763 267.1438322674763 267.1438322674763 267.1438322674763 267.1438322674763 267.1438322674763 267.1438322674763 267.1438322674763 267.1438322674763 267.1438322674763 267.1438322674763 267.1438322674763 267.1438322674763 267.1438322674763 267.1438322674763 267.1438322674763 267.1438322674763 267.1438322674763 267.1438322674763 267.1438322674763 267.1438322674763 267.1438322674763 267.1438322674763 267.1438322674763 267.1438322674763 267.1438322674763 267.1438322674763 267.1438322674763 267.1438322674763 267.1438322674763 267.1438322674763 267.1438322674763 267.1438322674763 267.1438322674763 267.1438322674763 267.1438322674763 267.1438322674763 267.1438322674763 267.1438322674763 267.1438322674763 267.1438322674763 267.1438322674763 267.1438322674763 267.1438322674763 267.1438322674763 267.1438322674763 267.1438322674763 267.1438322674763 267.1438322674763 267.1438322674763 267.1438322674763 267.1438322674763 267.1438322674763 267.1438322674763 267.1438322674763 267.1438322674763 267.1438322674763 267.1438322674763 267.1438322674763 267.1438322674763 267.1438322674763 267.1438322674763 267.1438322674763 267.1438322674763 267.1438322674763 267.1438322674763 267.1438322674763 267.1438322674763 267.1438322674763 267.1438322674763 267.1438322674763 267.1438322674763 267.1438322674763 267.1438322674763 267.1438322674763 267.1438322674763 267.1438322674763 267.1438322674763 267.1438322674763 267.1438322674763 267.1438322674763 267.1438322674763 267.1438322674763 267.1438322674763 267.1438322674763 267.1438322674763
684_param_0 267.14381565132584 267.14381565132584 267.14381565132584 267.14381565132584 267.14381565132584 267.14381565132584 267.14381565132584 267.14381565132584 267.14381565132584 267.14381565132584 267.14381565132584 267.14381565132584 267.14381565132584 267.14381565132584 267.14381565132584 267.14381565132584 267.14381565132584 267.14381565132584 267.14381565132584 267.14381565132584 267.14381565132584 267.14381565132584 267.14381565132584 267.14381565132584 267.14381565132584 267.14381565132584 267.14381565132584 267.14381565132584 267.14381565132584 267.14381565132584 267.14381565132584 267.14381565132584 267.14381565132584 267.14381565132584 267.14381565132584 267.14381565132584 267.14381565132584 267.14381565132584 267.14381565132584 267.14381565132584 267.14381565132584 267.14381565132584 267.14381565132584 267.14381565132584 267.14381565132584 267.14381565132584 267.14381565132584 267.14381565132584 267.14381565132584 267.14381565132584 267.14381565132584 267.14381565132584 267.14381565132584 267.14381565132584 267.14381565132584 267.14381565132584 267.14381565132584 267.14381565132584 267.14381565132584 267.14381565132584 267.14381565132584 267.14381565132584 267.14381565132584 267.14381565132584
687_param_0 213.45516801012744 213.45516801012744 213.45516801012744 213.45516801012744 213.45516801012744 213.45516801012744 213.45516801012744 213.45516801012744 213.45516801012744 213.45516801012744 213.45516801012744 213.45516801012744 213.45516801012744 213.45516801012744 213.45516801012744 213.45516801012744 213.45516801012744 213.45516801012744 213.45516801012744 213.45516801012744 213.45516801012744 213.45516801012744 213.45516801012744 213.45516801012744 213.45516801012744 213.45516801012744 213.45516801012744 213.45516801012744 213.45516801012744 213.45516801012744 213.45516801012744 213.45516801012744 213.45516801012744 213.45516801012744 213.45516801012744 213.45516801012744 213.45516801012744 213.45516801012744 213.45516801012744 213.45516801012744 213.45516801012744 213.45516801012744 213.45516801012744 213.45516801012744 213.45516801012744 213.45516801012744 213.45516801012744 213.45516801012744 213.45516801012744 213.45516801012744 213.45516801012744 213.45516801012744 213.45516801012744 213.45516801012744 213.45516801012744 213.45516801012744 213.45516801012744 213.45516801012744 213.45516801012744 213.45516801012744 213.45516801012744 213.45516801012744 213.45516801012744 213.45516801012744 213.45516801012744 213.45516801012744 213.45516801012744 213.45516801012744 213.45516801012744 213.45516801012744 213.45516801012744 213.45516801012744 213.45516801012744 213.45516801012744 213.45516801012744 213.45516801012744 213.45516801012744 213.45516801012744 213.45516801012744 213.45516801012744 213.45516801012744 213.45516801012744 213.45516801012744 213.45516801012744 213.45516801012744 213.45516801012744 213.45516801012744 213.45516801012744 213.45516801012744 213.45516801012744 213.45516801012744 213.45516801012744 213.45516801012744 213.45516801012744 213.45516801012744 213.45516801012744 213.45516801012744 213.45516801012744 213.45516801012744 213.45516801012744 213.45516801012744 213.45516801012744 213.45516801012744 213.45516801012744 213.45516801012744 213.45516801012744 213.45516801012744 213.45516801012744 213.45516801012744 213.45516801012744 213.45516801012744 213.45516801012744 213.45516801012744 213.45516801012744 213.45516801012744 213.45516801012744 213.45516801012744 213.45516801012744 213.45516801012744 213.45516801012744 213.45516801012744 213.45516801012744 213.45516801012744 213.45516801012744 213.45516801012744 213.45516801012744 213.45516801012744 213.45516801012744 213.45516801012744 213.45516801012744 213.45516801012744 213.45516801012744 213.45516801012744 213.45516801012744 213.45516801012744 213.45516801012744 213.45516801012744 213.45516801012744 213.45516801012744 213.45516801012744 213.45516801012744 213.45516801012744 213.45516801012744 213.45516801012744 213.45516801012744 213.45516801012744 213.45516801012744 213.45516801012744 213.45516801012744 213.45516801012744 213.45516801012744 213.45516801012744 213.45516801012744 213.45516801012744 213.45516801012744 213.45516801012744 213.45516801012744 213.45516801012744 213.45516801012744 213.45516801012744 213.45516801012744 213.45516801012744 213.45516801012744 213.45516801012744 213.45516801012744 213.45516801012744 213.45516801012744 213.45516801012744 213.45516801012744 213.45516801012744 213.45516801012744 213.45516801012744 213.45516801012744 213.45516801012744 213.45516801012744 213.45516801012744 213.45516801012744 213.45516801012744 213.45516801012744 213.45516801012744 213.45516801012744 213.45516801012744 213.45516801012744 213.45516801012744 213.45516801012744 213.45516801012744 213.45516801012744 213.45516801012744 213.45516801012744 213.45516801012744 213.45516801012744 213.45516801012744 213.45516801012744 213.45516801012744 213.45516801012744 213.45516801012744 213.45516801012744 213.45516801012744 213.45516801012744 213.45516801012744 213.45516801012744 213.45516801012744 213.45516801012744 213.45516801012744 213.45516801012744 213.45516801012744 213.45516801012744 213.45516801012744 213.45516801012744 213.45516801012744 213.45516801012744 213.45516801012744 213.45516801012744 213.45516801012744 213.45516801012744 213.45516801012744 213.45516801012744 213.45516801012744 213.45516801012744 213.45516801012744 213.45516801012744 213.45516801012744 213.45516801012744 213.45516801012744 213.45516801012744 213.45516801012744 213.45516801012744 213.45516801012744 213.45516801012744 213.45516801012744 213.45516801012744 213.45516801012744 213.45516801012744 213.45516801012744 213.45516801012744 213.45516801012744 213.45516801012744 213.45516801012744 213.45516801012744 213.45516801012744 213.45516801012744 213.45516801012744 213.45516801012744 213.45516801012744 213.45516801012744 213.45516801012744 213.45516801012744 213.45516801012744 213.45516801012744 213.45516801012744 213.45516801012744 213.45516801012744 213.45516801012744 213.45516801012744 213.45516801012744 213.45516801012744 213.45516801012744 213.45516801012744 213.45516801012744 213.45516801012744 213.45516801012744 213.45516801012744 213.45516801012744 213.45516801012744 213.45516801012744 213.45516801012744 213.45516801012744 213.45516801012744 213.45516801012744 213.45516801012744 213.45516801012744 213.45516801012744 213.45516801012744 213.45516801012744 213.45516801012744 213.45516801012744 213.45516801012744 213.45516801012744 213.45516801012744 213.45516801012744 213.45516801012744 213.45516801012744 213.45516801012744 213.45516801012744 213.45516801012744 213.45516801012744 213.45516801012744 213.45516801012744 213.45516801012744 213.45516801012744 213.45516801012744 213.45516801012744 213.45516801012744 213.45516801012744 213.45516801012744 213.45516801012744 213.45516801012744 213.45516801012744 213.45516801012744 213.45516801012744 213.45516801012744 213.45516801012744 213.45516801012744 213.45516801012744 213.45516801012744 213.45516801012744 213.45516801012744 213.45516801012744 213.45516801012744 213.45516801012744 213.45516801012744 213.45516801012744 213.45516801012744 213.45516801012744 213.45516801012744 213.45516801012744 213.45516801012744 213.45516801012744 213.45516801012744 213.45516801012744 213.45516801012744 213.45516801012744 213.45516801012744 213.45516801012744 213.45516801012744 213.45516801012744 213.45516801012744 213.45516801012744 213.45516801012744 213.45516801012744 213.45516801012744 213.45516801012744 213.45516801012744 213.45516801012744 213.45516801012744 213.45516801012744 213.45516801012744 213.45516801012744 213.45516801012744 213.45516801012744 213.45516801012744 213.45516801012744 213.45516801012744 213.45516801012744 213.45516801012744 213.45516801012744 213.45516801012744 213.45516801012744 213.45516801012744 213.45516801012744 213.45516801012744 213.45516801012744 213.45516801012744 213.45516801012744 213.45516801012744 213.45516801012744 213.45516801012744 213.45516801012744 213.45516801012744 213.45516801012744 213.45516801012744 213.45516801012744 213.45516801012744 213.45516801012744 213.45516801012744 213.45516801012744 213.45516801012744 213.45516801012744 213.45516801012744 213.45516801012744 213.45516801012744 213.45516801012744 213.45516801012744 213.45516801012744 213.45516801012744 213.45516801012744 213.45516801012744 213.45516801012744 213.45516801012744 213.45516801012744 213.45516801012744 213.45516801012744 213.45516801012744 213.45516801012744
690_param_0 213.45516801012744 213.45516801012744 213.45516801012744 213.45516801012744 213.45516801012744 213.45516801012744 213.45516801012744 213.45516801012744 213.45516801012744 213.45516801012744 213.45516801012744 213.45516801012744 213.45516801012744 213.45516801012744 213.45516801012744 213.45516801012744 213.45516801012744 213.45516801012744 213.45516801012744 213.45516801012744 213.45516801012744 213.45516801012744 213.45516801012744 213.45516801012744 213.45516801012744 213.45516801012744 213.45516801012744 213.45516801012744 213.45516801012744 213.45516801012744 213.45516801012744 213.45516801012744 213.45516801012744 213.45516801012744 213.45516801012744 213.45516801012744 213.45516801012744 213.45516801012744 213.45516801012744 213.45516801012744 213.45516801012744 213.45516801012744 213.45516801012744 213.45516801012744 213.45516801012744 213.45516801012744 213.45516801012744 213.45516801012744 213.45516801012744 213.45516801012744 213.45516801012744 213.45516801012744 213.45516801012744 213.45516801012744 213.45516801012744 213.45516801012744 213.45516801012744 213.45516801012744 213.45516801012744 213.45516801012744 213.45516801012744 213.45516801012744 213.45516801012744 213.45516801012744 213.45516801012744 213.45516801012744 213.45516801012744 213.45516801012744 213.45516801012744 213.45516801012744 213.45516801012744 213.45516801012744 213.45516801012744 213.45516801012744 213.45516801012744 213.45516801012744 213.45516801012744 213.45516801012744 213.45516801012744 213.45516801012744 213.45516801012744 213.45516801012744 213.45516801012744 213.45516801012744 213.45516801012744 213.45516801012744 213.45516801012744 213.45516801012744 213.45516801012744 213.45516801012744 213.45516801012744 213.45516801012744 213.45516801012744 213.45516801012744 213.45516801012744 213.45516801012744 213.45516801012744 213.45516801012744 213.45516801012744 213.45516801012744 213.45516801012744 213.45516801012744 213.45516801012744 213.45516801012744 213.45516801012744 213.45516801012744 213.45516801012744 213.45516801012744 213.45516801012744 213.45516801012744 213.45516801012744 213.45516801012744 213.45516801012744 213.45516801012744 213.45516801012744 213.45516801012744 213.45516801012744 213.45516801012744 213.45516801012744 213.45516801012744 213.45516801012744 213.45516801012744 213.45516801012744 213.45516801012744 213.45516801012744 213.45516801012744 213.45516801012744 213.45516801012744 213.45516801012744 213.45516801012744 213.45516801012744 213.45516801012744 213.45516801012744 213.45516801012744 213.45516801012744 213.45516801012744 213.45516801012744 213.45516801012744 213.45516801012744 213.45516801012744 213.45516801012744 213.45516801012744 213.45516801012744 213.45516801012744 213.45516801012744 213.45516801012744 213.45516801012744 213.45516801012744 213.45516801012744 213.45516801012744 213.45516801012744 213.45516801012744 213.45516801012744 213.45516801012744 213.45516801012744 213.45516801012744 213.45516801012744 213.45516801012744 213.45516801012744 213.45516801012744 213.45516801012744 213.45516801012744 213.45516801012744 213.45516801012744 213.45516801012744 213.45516801012744 213.45516801012744 213.45516801012744 213.45516801012744 213.45516801012744 213.45516801012744 213.45516801012744 213.45516801012744 213.45516801012744 213.45516801012744 213.45516801012744 213.45516801012744 213.45516801012744 213.45516801012744 213.45516801012744 213.45516801012744 213.45516801012744 213.45516801012744 213.45516801012744 213.45516801012744 213.45516801012744 213.45516801012744 213.45516801012744 213.45516801012744 213.45516801012744 213.45516801012744 213.45516801012744 213.45516801012744 213.45516801012744 213.45516801012744 213.45516801012744 213.45516801012744 213.45516801012744 213.45516801012744 213.45516801012744 213.45516801012744 213.45516801012744 213.45516801012744 213.45516801012744 213.45516801012744 213.45516801012744 213.45516801012744 213.45516801012744 213.45516801012744 213.45516801012744 213.45516801012744 213.45516801012744 213.45516801012744 213.45516801012744 213.45516801012744 213.45516801012744 213.45516801012744 213.45516801012744 213.45516801012744 213.45516801012744 213.45516801012744 213.45516801012744 213.45516801012744 213.45516801012744 213.45516801012744 213.45516801012744 213.45516801012744 213.45516801012744 213.45516801012744 213.45516801012744 213.45516801012744 213.45516801012744 213.45516801012744 213.45516801012744 213.45516801012744 213.45516801012744 213.45516801012744 213.45516801012744 213.45516801012744 213.45516801012744 213.45516801012744 213.45516801012744 213.45516801012744 213.45516801012744 213.45516801012744 213.45516801012744 213.45516801012744 213.45516801012744 213.45516801012744 213.45516801012744 213.45516801012744 213.45516801012744 213.45516801012744 213.45516801012744 213.45516801012744 213.45516801012744 213.45516801012744 213.45516801012744 213.45516801012744 213.45516801012744 213.45516801012744 213.45516801012744 213.45516801012744 213.45516801012744 213.45516801012744 213.45516801012744 213.45516801012744 213.45516801012744 213.45516801012744 213.45516801012744 213.45516801012744 213.45516801012744 213.45516801012744 213.45516801012744 213.45516801012744 213.45516801012744 213.45516801012744 213.45516801012744 213.45516801012744 213.45516801012744 213.45516801012744 213.45516801012744 213.45516801012744 213.45516801012744 213.45516801012744 213.45516801012744 213.45516801012744 213.45516801012744 213.45516801012744 213.45516801012744 213.45516801012744 213.45516801012744 213.45516801012744 213.45516801012744 213.45516801012744 213.45516801012744 213.45516801012744 213.45516801012744 213.45516801012744 213.45516801012744 213.45516801012744 213.45516801012744 213.45516801012744 213.45516801012744 213.45516801012744 213.45516801012744 213.45516801012744 213.45516801012744 213.45516801012744 213.45516801012744 213.45516801012744 213.45516801012744 213.45516801012744 213.45516801012744 213.45516801012744 213.45516801012744 213.45516801012744 213.45516801012744 213.45516801012744 213.45516801012744 213.45516801012744 213.45516801012744 213.45516801012744 213.45516801012744 213.45516801012744 213.45516801012744 213.45516801012744 213.45516801012744 213.45516801012744 213.45516801012744 213.45516801012744 213.45516801012744 213.45516801012744 213.45516801012744 213.45516801012744 213.45516801012744 213.45516801012744 213.45516801012744 213.45516801012744 213.45516801012744 213.45516801012744 213.45516801012744 213.45516801012744 213.45516801012744 213.45516801012744 213.45516801012744 213.45516801012744 213.45516801012744 213.45516801012744 213.45516801012744 213.45516801012744 213.45516801012744 213.45516801012744 213.45516801012744 213.45516801012744 213.45516801012744 213.45516801012744 213.45516801012744 213.45516801012744 213.45516801012744 213.45516801012744 213.45516801012744 213.45516801012744 213.45516801012744 213.45516801012744 213.45516801012744 213.45516801012744 213.45516801012744 213.45516801012744 213.45516801012744 213.45516801012744 213.45516801012744 213.45516801012744 213.45516801012744 213.45516801012744 213.45516801012744 213.45516801012744 213.45516801012744 213.45516801012744 213.45516801012744 213.45516801012744 213.45516801012744 213.45516801012744 213.45516801012744
693_param_0 213.4551467931537 213.4551467931537 213.4551467931537 213.4551467931537 213.4551467931537 213.4551467931537 213.4551467931537 213.4551467931537 213.4551467931537 213.4551467931537 213.4551467931537 213.4551467931537 213.4551467931537 213.4551467931537 213.4551467931537 213.4551467931537 213.4551467931537 213.4551467931537 213.4551467931537 213.4551467931537 213.4551467931537 213.4551467931537 213.4551467931537 213.4551467931537 213.4551467931537 213.4551467931537 213.4551467931537 213.4551467931537 213.4551467931537 213.4551467931537 213.4551467931537 213.4551467931537 213.4551467931537 213.4551467931537 213.4551467931537 213.4551467931537 213.4551467931537 213.4551467931537 213.4551467931537 213.4551467931537 213.4551467931537 213.4551467931537 213.4551467931537 213.4551467931537 213.4551467931537 213.4551467931537 213.4551467931537 213.4551467931537 213.4551467931537 213.4551467931537 213.4551467931537 213.4551467931537 213.4551467931537 213.4551467931537 213.4551467931537 213.4551467931537 213.4551467931537 213.4551467931537 213.4551467931537 213.4551467931537 213.4551467931537 213.4551467931537 213.4551467931537 213.4551467931537
696_param_0 225.70574683263322 225.70574683263322 225.70574683263322 225.70574683263322 225.70574683263322 225.70574683263322 225.70574683263322 225.70574683263322 225.70574683263322 225.70574683263322 225.70574683263322 225.70574683263322 225.70574683263322 225.70574683263322 225.70574683263322 225.70574683263322 225.70574683263322 225.70574683263322 225.70574683263322 225.70574683263322 225.70574683263322 225.70574683263322 225.70574683263322 225.70574683263322 225.70574683263322 225.70574683263322 225.70574683263322 225.70574683263322 225.70574683263322 225.70574683263322 225.70574683263322 225.70574683263322 225.70574683263322 225.70574683263322 225.70574683263322 225.70574683263322 225.70574683263322 225.70574683263322 225.70574683263322 225.70574683263322 225.70574683263322 225.70574683263322 225.70574683263322 225.70574683263322 225.70574683263322 225.70574683263322 225.70574683263322 225.70574683263322 225.70574683263322 225.70574683263322 225.70574683263322 225.70574683263322 225.70574683263322 225.70574683263322 225.70574683263322 225.70574683263322 225.70574683263322 225.70574683263322 225.70574683263322 225.70574683263322 225.70574683263322 225.70574683263322 225.70574683263322 225.70574683263322 225.70574683263322 225.70574683263322 225.70574683263322 225.70574683263322 225.70574683263322 225.70574683263322 225.70574683263322 225.70574683263322 225.70574683263322 225.70574683263322 225.70574683263322 225.70574683263322 225.70574683263322 225.70574683263322 225.70574683263322 225.70574683263322 225.70574683263322 225.70574683263322 225.70574683263322 225.70574683263322 225.70574683263322 225.70574683263322 225.70574683263322 225.70574683263322 225.70574683263322 225.70574683263322 225.70574683263322 225.70574683263322 225.70574683263322 225.70574683263322 225.70574683263322 225.70574683263322 225.70574683263322 225.70574683263322 225.70574683263322 225.70574683263322 225.70574683263322 225.70574683263322 225.70574683263322 225.70574683263322 225.70574683263322 225.70574683263322 225.70574683263322 225.70574683263322 225.70574683263322 225.70574683263322 225.70574683263322 225.70574683263322 225.70574683263322 225.70574683263322 225.70574683263322 225.70574683263322 225.70574683263322 225.70574683263322 225.70574683263322 225.70574683263322 225.70574683263322 225.70574683263322 225.70574683263322 225.70574683263322 225.70574683263322 225.70574683263322 225.70574683263322 225.70574683263322 225.70574683263322 225.70574683263322 225.70574683263322 225.70574683263322 225.70574683263322 225.70574683263322 225.70574683263322 225.70574683263322 225.70574683263322 225.70574683263322 225.70574683263322 225.70574683263322 225.70574683263322 225.70574683263322 225.70574683263322 225.70574683263322 225.70574683263322 225.70574683263322 225.70574683263322 225.70574683263322 225.70574683263322 225.70574683263322 225.70574683263322 225.70574683263322 225.70574683263322 225.70574683263322 225.70574683263322 225.70574683263322 225.70574683263322 225.70574683263322 225.70574683263322 225.70574683263322 225.70574683263322 225.70574683263322 225.70574683263322 225.70574683263322 225.70574683263322 225.70574683263322 225.70574683263322 225.70574683263322 225.70574683263322 225.70574683263322 225.70574683263322 225.70574683263322 225.70574683263322 225.70574683263322 225.70574683263322 225.70574683263322 225.70574683263322 225.70574683263322 225.70574683263322 225.70574683263322 225.70574683263322 225.70574683263322 225.70574683263322 225.70574683263322 225.70574683263322 225.70574683263322 225.70574683263322 225.70574683263322 225.70574683263322 225.70574683263322 225.70574683263322 225.70574683263322 225.70574683263322 225.70574683263322 225.70574683263322 225.70574683263322 225.70574683263322 225.70574683263322 225.70574683263322 225.70574683263322 225.70574683263322 225.70574683263322 225.70574683263322 225.70574683263322 225.70574683263322 225.70574683263322 225.70574683263322 225.70574683263322 225.70574683263322 225.70574683263322 225.70574683263322 225.70574683263322 225.70574683263322 225.70574683263322 225.70574683263322 225.70574683263322 225.70574683263322 225.70574683263322 225.70574683263322 225.70574683263322 225.70574683263322 225.70574683263322 225.70574683263322 225.70574683263322 225.70574683263322 225.70574683263322 225.70574683263322 225.70574683263322 225.70574683263322 225.70574683263322 225.70574683263322 225.70574683263322 225.70574683263322 225.70574683263322 225.70574683263322 225.70574683263322 225.70574683263322 225.70574683263322 225.70574683263322 225.70574683263322 225.70574683263322 225.70574683263322 225.70574683263322 225.70574683263322 225.70574683263322 225.70574683263322 225.70574683263322 225.70574683263322 225.70574683263322 225.70574683263322 225.70574683263322 225.70574683263322 225.70574683263322 225.70574683263322 225.70574683263322 225.70574683263322 225.70574683263322 225.70574683263322 225.70574683263322 225.70574683263322 225.70574683263322 225.70574683263322 225.70574683263322 225.70574683263322 225.70574683263322 225.70574683263322 225.70574683263322 225.70574683263322 225.70574683263322 225.70574683263322 225.70574683263322 225.70574683263322 225.70574683263322 225.70574683263322 225.70574683263322 225.70574683263322 225.70574683263322 225.70574683263322 225.70574683263322 225.70574683263322 225.70574683263322 225.70574683263322 225.70574683263322 225.70574683263322 225.70574683263322 225.70574683263322 225.70574683263322 225.70574683263322 225.70574683263322 225.70574683263322 225.70574683263322 225.70574683263322 225.70574683263322 225.70574683263322 225.70574683263322 225.70574683263322 225.70574683263322 225.70574683263322 225.70574683263322 225.70574683263322 225.70574683263322 225.70574683263322 225.70574683263322 225.70574683263322 225.70574683263322 225.70574683263322 225.70574683263322 225.70574683263322 225.70574683263322 225.70574683263322 225.70574683263322 225.70574683263322 225.70574683263322 225.70574683263322 225.70574683263322 225.70574683263322 225.70574683263322 225.70574683263322 225.70574683263322 225.70574683263322 225.70574683263322 225.70574683263322 225.70574683263322 225.70574683263322 225.70574683263322 225.70574683263322 225.70574683263322 225.70574683263322 225.70574683263322 225.70574683263322 225.70574683263322 225.70574683263322 225.70574683263322 225.70574683263322 225.70574683263322 225.70574683263322 225.70574683263322 225.70574683263322 225.70574683263322 225.70574683263322 225.70574683263322 225.70574683263322 225.70574683263322 225.70574683263322 225.70574683263322 225.70574683263322 225.70574683263322 225.70574683263322 225.70574683263322 225.70574683263322 225.70574683263322 225.70574683263322 225.70574683263322 225.70574683263322 225.70574683263322 225.70574683263322 225.70574683263322 225.70574683263322 225.70574683263322 225.70574683263322 225.70574683263322 225.70574683263322 225.70574683263322 225.70574683263322 225.70574683263322 225.70574683263322 225.70574683263322 225.70574683263322 225.70574683263322 225.70574683263322 225.70574683263322 225.70574683263322 225.70574683263322 225.70574683263322 225.70574683263322 225.70574683263322 225.70574683263322 225.70574683263322 225.70574683263322 225.70574683263322 225.70574683263322 225.70574683263322 225.70574683263322 225.70574683263322
699_param_0 225.70577055485785 225.70577055485785 225.70577055485785 225.70577055485785 225.70577055485785 225.70577055485785 225.70577055485785 225.70577055485785 225.70577055485785 225.70577055485785 225.70577055485785 225.70577055485785 225.70577055485785 225.70577055485785 225.70577055485785 225.70577055485785 225.70577055485785 225.70577055485785 225.70577055485785 225.70577055485785 225.70577055485785 225.70577055485785 225.70577055485785 225.70577055485785 225.70577055485785 225.70577055485785 225.70577055485785 225.70577055485785 225.70577055485785 225.70577055485785 225.70577055485785 225.70577055485785 225.70577055485785 225.70577055485785 225.70577055485785 225.70577055485785 225.70577055485785 225.70577055485785 225.70577055485785 225.70577055485785 225.70577055485785 225.70577055485785 225.70577055485785 225.70577055485785 225.70577055485785 225.70577055485785 225.70577055485785 225.70577055485785 225.70577055485785 225.70577055485785 225.70577055485785 225.70577055485785 225.70577055485785 225.70577055485785 225.70577055485785 225.70577055485785 225.70577055485785 225.70577055485785 225.70577055485785 225.70577055485785 225.70577055485785 225.70577055485785 225.70577055485785 225.70577055485785 225.70577055485785 225.70577055485785 225.70577055485785 225.70577055485785 225.70577055485785 225.70577055485785 225.70577055485785 225.70577055485785 225.70577055485785 225.70577055485785 225.70577055485785 225.70577055485785 225.70577055485785 225.70577055485785 225.70577055485785 225.70577055485785 225.70577055485785 225.70577055485785 225.70577055485785 225.70577055485785 225.70577055485785 225.70577055485785 225.70577055485785 225.70577055485785 225.70577055485785 225.70577055485785 225.70577055485785 225.70577055485785 225.70577055485785 225.70577055485785 225.70577055485785 225.70577055485785 225.70577055485785 225.70577055485785 225.70577055485785 225.70577055485785 225.70577055485785 225.70577055485785 225.70577055485785 225.70577055485785 225.70577055485785 225.70577055485785 225.70577055485785 225.70577055485785 225.70577055485785 225.70577055485785 225.70577055485785 225.70577055485785 225.70577055485785 225.70577055485785 225.70577055485785 225.70577055485785 225.70577055485785 225.70577055485785 225.70577055485785 225.70577055485785 225.70577055485785 225.70577055485785 225.70577055485785 225.70577055485785 225.70577055485785 225.70577055485785 225.70577055485785 225.70577055485785 225.70577055485785 225.70577055485785 225.70577055485785 225.70577055485785 225.70577055485785 225.70577055485785 225.70577055485785 225.70577055485785 225.70577055485785 225.70577055485785 225.70577055485785 225.70577055485785 225.70577055485785 225.70577055485785 225.70577055485785 225.70577055485785 225.70577055485785 225.70577055485785 225.70577055485785 225.70577055485785 225.70577055485785 225.70577055485785 225.70577055485785 225.70577055485785 225.70577055485785 225.70577055485785 225.70577055485785 225.70577055485785 225.70577055485785 225.70577055485785 225.70577055485785 225.70577055485785 225.70577055485785 225.70577055485785 225.70577055485785 225.70577055485785 225.70577055485785 225.70577055485785 225.70577055485785 225.70577055485785 225.70577055485785 225.70577055485785 225.70577055485785 225.70577055485785 225.70577055485785 225.70577055485785 225.70577055485785 225.70577055485785 225.70577055485785 225.70577055485785 225.70577055485785 225.70577055485785 225.70577055485785 225.70577055485785 225.70577055485785 225.70577055485785 225.70577055485785 225.70577055485785 225.70577055485785 225.70577055485785 225.70577055485785 225.70577055485785 225.70577055485785 225.70577055485785 225.70577055485785 225.70577055485785 225.70577055485785 225.70577055485785 225.70577055485785 225.70577055485785 225.70577055485785 225.70577055485785 225.70577055485785 225.70577055485785 225.70577055485785 225.70577055485785 225.70577055485785 225.70577055485785 225.70577055485785 225.70577055485785 225.70577055485785 225.70577055485785 225.70577055485785 225.70577055485785 225.70577055485785 225.70577055485785 225.70577055485785 225.70577055485785 225.70577055485785 225.70577055485785 225.70577055485785 225.70577055485785 225.70577055485785 225.70577055485785 225.70577055485785 225.70577055485785 225.70577055485785 225.70577055485785 225.70577055485785 225.70577055485785 225.70577055485785 225.70577055485785 225.70577055485785 225.70577055485785 225.70577055485785 225.70577055485785 225.70577055485785 225.70577055485785 225.70577055485785 225.70577055485785 225.70577055485785 225.70577055485785 225.70577055485785 225.70577055485785 225.70577055485785 225.70577055485785 225.70577055485785 225.70577055485785 225.70577055485785 225.70577055485785 225.70577055485785 225.70577055485785 225.70577055485785 225.70577055485785 225.70577055485785 225.70577055485785 225.70577055485785 225.70577055485785 225.70577055485785 225.70577055485785 225.70577055485785 225.70577055485785 225.70577055485785 225.70577055485785 225.70577055485785 225.70577055485785 225.70577055485785 225.70577055485785 225.70577055485785 225.70577055485785 225.70577055485785 225.70577055485785 225.70577055485785 225.70577055485785 225.70577055485785 225.70577055485785 225.70577055485785 225.70577055485785 225.70577055485785 225.70577055485785 225.70577055485785 225.70577055485785 225.70577055485785 225.70577055485785 225.70577055485785 225.70577055485785 225.70577055485785 225.70577055485785 225.70577055485785 225.70577055485785 225.70577055485785 225.70577055485785 225.70577055485785 225.70577055485785 225.70577055485785 225.70577055485785 225.70577055485785 225.70577055485785 225.70577055485785 225.70577055485785 225.70577055485785 225.70577055485785 225.70577055485785 225.70577055485785 225.70577055485785 225.70577055485785 225.70577055485785 225.70577055485785 225.70577055485785 225.70577055485785 225.70577055485785 225.70577055485785 225.70577055485785 225.70577055485785 225.70577055485785 225.70577055485785 225.70577055485785 225.70577055485785 225.70577055485785 225.70577055485785 225.70577055485785 225.70577055485785 225.70577055485785 225.70577055485785 225.70577055485785 225.70577055485785 225.70577055485785 225.70577055485785 225.70577055485785 225.70577055485785 225.70577055485785 225.70577055485785 225.70577055485785 225.70577055485785 225.70577055485785 225.70577055485785 225.70577055485785 225.70577055485785 225.70577055485785 225.70577055485785 225.70577055485785 225.70577055485785 225.70577055485785 225.70577055485785 225.70577055485785 225.70577055485785 225.70577055485785 225.70577055485785 225.70577055485785 225.70577055485785 225.70577055485785 225.70577055485785 225.70577055485785 225.70577055485785 225.70577055485785 225.70577055485785 225.70577055485785 225.70577055485785 225.70577055485785 225.70577055485785 225.70577055485785 225.70577055485785 225.70577055485785 225.70577055485785 225.70577055485785 225.70577055485785 225.70577055485785 225.70577055485785 225.70577055485785 225.70577055485785 225.70577055485785 225.70577055485785 225.70577055485785 225.70577055485785 225.70577055485785 225.70577055485785 225.70577055485785 225.70577055485785 225.70577055485785 225.70577055485785 225.70577055485785 225.70577055485785 225.70577055485785 225.70577055485785 225.70577055485785 225.70577055485785
702_param_0 225.70577055485785 225.70577055485785 225.70577055485785 225.70577055485785 225.70577055485785 225.70577055485785 225.70577055485785 225.70577055485785 225.70577055485785 225.70577055485785 225.70577055485785 225.70577055485785 225.70577055485785 225.70577055485785 225.70577055485785 225.70577055485785 225.70577055485785 225.70577055485785 225.70577055485785 225.70577055485785 225.70577055485785 225.70577055485785 225.70577055485785 225.70577055485785 225.70577055485785 225.70577055485785 225.70577055485785 225.70577055485785 225.70577055485785 225.70577055485785 225.70577055485785 225.70577055485785 225.70577055485785 225.70577055485785 225.70577055485785 225.70577055485785 225.70577055485785 225.70577055485785 225.70577055485785 225.70577055485785 225.70577055485785 225.70577055485785 225.70577055485785 225.70577055485785 225.70577055485785 225.70577055485785 225.70577055485785 225.70577055485785 225.70577055485785 225.70577055485785 225.70577055485785 225.70577055485785 225.70577055485785 225.70577055485785 225.70577055485785 225.70577055485785 225.70577055485785 225.70577055485785 225.70577055485785 225.70577055485785 225.70577055485785 225.70577055485785 225.70577055485785 225.70577055485785
705_param_0 252.26326782739588 252.26326782739588 252.26326782739588 252.26326782739588 252.26326782739588 252.26326782739588 252.26326782739588 252.26326782739588 252.26326782739588 252.26326782739588 252.26326782739588 252.26326782739588 252.26326782739588 252.26326782739588 252.26326782739588 252.26326782739588 252.26326782739588 252.26326782739588 252.26326782739588 252.26326782739588 252.26326782739588 252.26326782739588 252.26326782739588 252.26326782739588 252.26326782739588 252.26326782739588 252.26326782739588 252.26326782739588 252.26326782739588 252.26326782739588 252.26326782739588 252.26326782739588 252.26326782739588 252.26326782739588 252.26326782739588 252.26326782739588 252.26326782739588 252.26326782739588 252.26326782739588 252.26326782739588 252.26326782739588 252.26326782739588 252.26326782739588 252.26326782739588 252.26326782739588 252.26326782739588 252.26326782739588 252.26326782739588 252.26326782739588 252.26326782739588 252.26326782739588 252.26326782739588 252.26326782739588 252.26326782739588 252.26326782739588 252.26326782739588 252.26326782739588 252.26326782739588 252.26326782739588 252.26326782739588 252.26326782739588 252.26326782739588 252.26326782739588 252.26326782739588 252.26326782739588 252.26326782739588 252.26326782739588 252.26326782739588 252.26326782739588 252.26326782739588 252.26326782739588 252.26326782739588 252.26326782739588 252.26326782739588 252.26326782739588 252.26326782739588 252.26326782739588 252.26326782739588 252.26326782739588 252.26326782739588 252.26326782739588 252.26326782739588 252.26326782739588 252.26326782739588 252.26326782739588 252.26326782739588 252.26326782739588 252.26326782739588 252.26326782739588 252.26326782739588 252.26326782739588 252.26326782739588 252.26326782739588 252.26326782739588 252.26326782739588 252.26326782739588 252.26326782739588 252.26326782739588 252.26326782739588 252.26326782739588 252.26326782739588 252.26326782739588 252.26326782739588 252.26326782739588 252.26326782739588 252.26326782739588 252.26326782739588 252.26326782739588 252.26326782739588 252.26326782739588 252.26326782739588 252.26326782739588 252.26326782739588 252.26326782739588 252.26326782739588 252.26326782739588 252.26326782739588 252.26326782739588 252.26326782739588 252.26326782739588 252.26326782739588 252.26326782739588 252.26326782739588 252.26326782739588 252.26326782739588 252.26326782739588 252.26326782739588 252.26326782739588 252.26326782739588 252.26326782739588 252.26326782739588 252.26326782739588 252.26326782739588 252.26326782739588 252.26326782739588 252.26326782739588 252.26326782739588 252.26326782739588 252.26326782739588 252.26326782739588 252.26326782739588 252.26326782739588 252.26326782739588 252.26326782739588 252.26326782739588 252.26326782739588 252.26326782739588 252.26326782739588 252.26326782739588 252.26326782739588 252.26326782739588 252.26326782739588 252.26326782739588 252.26326782739588 252.26326782739588 252.26326782739588 252.26326782739588 252.26326782739588 252.26326782739588 252.26326782739588 252.26326782739588 252.26326782739588 252.26326782739588 252.26326782739588 252.26326782739588 252.26326782739588 252.26326782739588 252.26326782739588 252.26326782739588 252.26326782739588 252.26326782739588 252.26326782739588 252.26326782739588 252.26326782739588 252.26326782739588 252.26326782739588 252.26326782739588 252.26326782739588 252.26326782739588 252.26326782739588 252.26326782739588 252.26326782739588 252.26326782739588 252.26326782739588 252.26326782739588 252.26326782739588 252.26326782739588 252.26326782739588 252.26326782739588 252.26326782739588 252.26326782739588 252.26326782739588 252.26326782739588 252.26326782739588 252.26326782739588 252.26326782739588 252.26326782739588 252.26326782739588 252.26326782739588 252.26326782739588 252.26326782739588 252.26326782739588 252.26326782739588 252.26326782739588 252.26326782739588 252.26326782739588 252.26326782739588 252.26326782739588 252.26326782739588 252.26326782739588 252.26326782739588 252.26326782739588 252.26326782739588 252.26326782739588 252.26326782739588 252.26326782739588 252.26326782739588 252.26326782739588 252.26326782739588 252.26326782739588 252.26326782739588 252.26326782739588 252.26326782739588 252.26326782739588 252.26326782739588 252.26326782739588 252.26326782739588 252.26326782739588 252.26326782739588 252.26326782739588 252.26326782739588 252.26326782739588 252.26326782739588 252.26326782739588 252.26326782739588 252.26326782739588 252.26326782739588 252.26326782739588 252.26326782739588 252.26326782739588 252.26326782739588 252.26326782739588 252.26326782739588 252.26326782739588 252.26326782739588 252.26326782739588 252.26326782739588 252.26326782739588 252.26326782739588 252.26326782739588 252.26326782739588 252.26326782739588 252.26326782739588 252.26326782739588 252.26326782739588 252.26326782739588 252.26326782739588 252.26326782739588 252.26326782739588 252.26326782739588 252.26326782739588 252.26326782739588 252.26326782739588 252.26326782739588 252.26326782739588 252.26326782739588 252.26326782739588 252.26326782739588 252.26326782739588 252.26326782739588 252.26326782739588 252.26326782739588 252.26326782739588 252.26326782739588 252.26326782739588 252.26326782739588 252.26326782739588 252.26326782739588 252.26326782739588 252.26326782739588 252.26326782739588 252.26326782739588 252.26326782739588 252.26326782739588 252.26326782739588 252.26326782739588 252.26326782739588 252.26326782739588 252.26326782739588 252.26326782739588 252.26326782739588 252.26326782739588 252.26326782739588 252.26326782739588 252.26326782739588 252.26326782739588 252.26326782739588 252.26326782739588 252.26326782739588 252.26326782739588 252.26326782739588 252.26326782739588 252.26326782739588 252.26326782739588 252.26326782739588 252.26326782739588 252.26326782739588 252.26326782739588 252.26326782739588 252.26326782739588 252.26326782739588 252.26326782739588 252.26326782739588 252.26326782739588 252.26326782739588 252.26326782739588 252.26326782739588 252.26326782739588 252.26326782739588 252.26326782739588 252.26326782739588 252.26326782739588 252.26326782739588 252.26326782739588 252.26326782739588 252.26326782739588 252.26326782739588 252.26326782739588 252.26326782739588 252.26326782739588 252.26326782739588 252.26326782739588 252.26326782739588 252.26326782739588 252.26326782739588 252.26326782739588 252.26326782739588 252.26326782739588 252.26326782739588 252.26326782739588 252.26326782739588 252.26326782739588 252.26326782739588 252.26326782739588 252.26326782739588 252.26326782739588 252.26326782739588 252.26326782739588 252.26326782739588 252.26326782739588 252.26326782739588 252.26326782739588 252.26326782739588 252.26326782739588 252.26326782739588 252.26326782739588 252.26326782739588 252.26326782739588 252.26326782739588 252.26326782739588 252.26326782739588 252.26326782739588 252.26326782739588 252.26326782739588 252.26326782739588 252.26326782739588 252.26326782739588 252.26326782739588 252.26326782739588 252.26326782739588 252.26326782739588 252.26326782739588 252.26326782739588 252.26326782739588 252.26326782739588 252.26326782739588 252.26326782739588 252.26326782739588 252.26326782739588 252.26326782739588 252.26326782739588 252.26326782739588 252.26326782739588 252.26326782739588
